<unk>	0
<s>	0
</s>	0
.	-3.39288
▁	-3.6145
의	-3.94768
,	-3.96202
에	-4.39216
는	-4.46719
을	-4.46835
이	-4.5195
)	-4.65051
은	-4.76835
(	-4.79628
년	-4.81186
가	-4.83929
를	-4.9099
로	-4.95601
에서	-5.16686
과	-5.38186
으로	-5.40349
인	-5.4246
한	-5.48177
도	-5.51405
와	-5.51496
월	-5.54257
▁이	-5.55684
고	-5.61253
일	-5.62434
이다	-5.6444
지	-5.70408
▁있다	-5.77442
리	-5.80581
기	-5.82631
▁수	-5.84138
사	-5.85746
스	-5.93861
시	-5.94052
다	-6.03011
하는	-6.11761
자	-6.13804
▁1	-6.14359
했다	-6.16408
어	-6.16595
-	-6.25713
하고	-6.26364
대	-6.27331
▁2	-6.27831
▁그	-6.28186
나	-6.31348
수	-6.32827
주	-6.35135
라	-6.35393
해	-6.35602
성	-6.36756
부	-6.37519
하였다	-6.37956
▁제	-6.38841
▁3	-6.40785
트	-6.41217
원	-6.41755
구	-6.47859
서	-6.48505
"	-6.49426
하여	-6.50315
적	-6.50384
상	-6.51883
정	-6.54129
전	-6.54797
▁전	-6.55865
화	-6.55885
▁중	-6.56635
르	-6.5835
장	-6.59171
▁"	-6.59434
:	-6.59659
되었다	-6.60394
아	-6.60555
드	-6.61282
▁(	-6.61365
만	-6.62628
할	-6.64669
소	-6.64748
조	-6.66717
▁있는	-6.66761
된	-6.67061
▁4	-6.67734
비	-6.69072
마	-6.69393
▁사	-6.70337
산	-6.70556
동	-6.70603
미	-6.70623
치	-6.71388
제	-6.71479
▁주	-6.77621
▁아	-6.77706
▁대	-6.78491
▁한	-6.78533
세	-6.80203
▁유	-6.81684
오	-6.81858
▁5	-6.82209
한다	-6.82272
▁가	-6.83169
;	-6.83204
선	-6.83574
니	-6.83927
타	-6.85013
▁시	-6.86444
s	-6.87351
면	-6.87881
▁《	-6.87936
'	-6.89372
진	-6.89391
신	-6.89721
게	-6.90298
보	-6.90846
크	-6.91057
우	-6.91078
▁후	-6.91781
▁정	-6.93115
명	-6.95005
노	-6.96773
▁오	-6.97762
▁고	-6.98669
하	-6.98712
당	-6.99105
▁6	-6.99129
단	-6.99745
회	-7.00025
국	-7.01052
에게	-7.01443
2	-7.01788
군	-7.02088
▁신	-7.02377
》	-7.03263
계	-7.04003
호	-7.04225
관	-7.04408
▁10	-7.0472
▁마	-7.04824
▁동	-7.04958
위	-7.052
▁'	-7.05762
차	-7.05896
파	-7.05943
에는	-7.0631
적인	-7.07024
▁기	-7.07449
▁소	-7.08071
▁부	-7.08981
야	-7.0915
▁7	-7.09574
▁지	-7.09859
▁이후	-7.10406
▁8	-7.11395
되어	-7.12977
▁등	-7.13304
▁및	-7.13316
카	-7.13823
▁비	-7.14527
하게	-7.14641
프	-7.14701
모	-7.15504
체	-7.15775
▁다른	-7.15917
개	-7.16574
역	-7.17023
▁무	-7.17967
▁일	-7.18161
▁두	-7.18713
토	-7.19274
형	-7.1966
·	-7.19887
코	-7.20455
레	-7.20477
종	-7.20797
루	-7.21239
년에	-7.21427
식	-7.21512
▁미	-7.21514
문	-7.21607
즈	-7.22223
▁한다	-7.22227
▁각주	-7.223
▁조	-7.2233
▁9	-7.22521
경	-7.22761
무	-7.23626
&	-7.23736
▁대한	-7.23996
▁상	-7.24296
에서는	-7.24768
▁때	-7.24948
▁18	-7.25226
바	-7.26511
안	-7.26792
(:	-7.27135
▁세	-7.28294
▁구	-7.28621
▁자	-7.28646
▁하	-7.28757
▁그는	-7.28765
▁성	-7.29111
분	-7.29317
1	-7.29638
▁12	-7.29974
하기	-7.30476
▁해	-7.31142
▁보	-7.31145
▁같은	-7.31601
▁서	-7.31843
적으로	-7.31854
▁공	-7.32018
중	-7.32137
현	-7.32868
e	-7.33315
용	-7.3337
▁~	-7.33909
포	-7.34036
▁선	-7.34863
▁내	-7.36846
유	-7.36967
천	-7.37894
히	-7.38042
▁도	-7.38105
),	-7.38568
영	-7.39042
까지	-7.39772
법	-7.40168
교	-7.40456
공	-7.40707
키	-7.40918
러	-7.41032
재	-7.41153
▁김	-7.41427
학	-7.41604
▁나	-7.41952
양	-7.42213
이며	-7.4222
m	-7.42339
▁되었다	-7.42797
▁11	-7.43545
티	-7.44118
들	-7.44197
▁모	-7.44324
▁위해	-7.44777
방	-7.45792
y	-7.46029
▁formula	-7.46445
▁장	-7.46659
▁!	-7.47026
디	-7.47181
▁다	-7.47209
▁강	-7.47388
▁안	-7.47577
="	-7.47685
lt	-7.48631
▁함께	-7.49021
하며	-7.49117
▁또한	-7.49184
들이	-7.4992
▁미국	-7.50039
▁말	-7.50171
▁|	-7.5087
gt	-7.51056
▁바	-7.51126
권	-7.52045
;"	-7.52348
align	-7.5239
▁일본	-7.52429
▁S	-7.52459
text	-7.52482
▁원	-7.52571
연	-7.52634
▁style	-7.52806
3	-7.52882
▁더	-7.53919
▁카	-7.54369
▁left	-7.54469
물	-7.5468
M	-7.56111
C	-7.56573
여	-7.56688
행	-7.56702
▁파	-7.57138
석	-7.5736
며	-7.57964
실	-7.58206
o	-7.58463
▁불	-7.58832
려	-7.58987
네	-7.59018
라는	-7.59123
강	-7.59356
하지	-7.60016
▁재	-7.60208
▁경	-7.60785
된다	-7.61047
생	-7.61571
a	-7.61693
▁또는	-7.62059
들은	-7.62212
▁A	-7.63202
▁가장	-7.63429
S	-7.63688
▁남	-7.63788
간	-7.63802
터	-7.6384
▁호	-7.64247
린	-7.6447
▁역	-7.64863
▁포	-7.64913
라고	-7.65541
피	-7.66034
▁때문에	-7.66702
요	-7.67155
내	-7.67392
▁연	-7.67425
/	-7.67529
류	-7.67685
▁것을	-7.68577
▁진	-7.68781
19	-7.69135
i	-7.69159
속	-7.69534
▁C	-7.70144
그	-7.70201
▁우	-7.70227
▁리	-7.70572
▁그의	-7.70587
들을	-7.70693
론	-7.71045
▁M	-7.71046
n	-7.71389
민	-7.71765
▁양	-7.72076
남	-7.72283
▁데	-7.72327
▁총	-7.7252
되는	-7.72565
판	-7.72745
브	-7.72793
▁스	-7.73174
주의	-7.73188
▁의해	-7.73224
P	-7.73238
B	-7.73359
력	-7.73384
▁피	-7.73529
작	-7.73624
▁것으로	-7.73858
반	-7.73987
t	-7.74034
▁반	-7.74118
▁위	-7.74485
이나	-7.74733
데	-7.74735
▁그러나	-7.7487
부터	-7.75148
er	-7.75153
r	-7.75249
임	-7.75269
▁있었다	-7.75421
▁당시	-7.75555
▁따라	-7.75648
D	-7.7578
T	-7.76029
▁있으며	-7.76145
▁노	-7.76374
▁산	-7.76455
란	-7.76469
운	-7.76617
A	-7.77996
▁약	-7.78284
L	-7.78597
발	-7.786
4	-7.78666
▁:	-7.78747
▁영	-7.78949
▁초	-7.79138
▁발	-7.79155
▁배	-7.79321
왕	-7.79486
족	-7.79868
였다	-7.79959
▁코	-7.8008
E	-7.80161
u	-7.80835
쿠	-7.80846
5	-7.81021
병	-7.81053
▁명	-7.82133
던	-7.8233
래	-7.82353
질	-7.82614
▁세계	-7.82837
거	-7.8284
▁B	-7.83298
▁입	-7.83315
▁된다	-7.84221
▁매	-7.84617
al	-7.84694
츠	-7.84965
▁알	-7.85004
▁그리고	-7.8507
청	-7.85259
번	-7.8547
일에	-7.85636
▁15	-7.8569
점	-7.85962
▁한국	-7.86339
후	-7.86519
테	-7.86644
F	-7.87057
▁많은	-7.87558
▁16	-7.87814
하면서	-7.87839
▁통해	-7.88138
▁단	-7.88246
▁인	-7.88405
▁것이	-7.88487
했고	-7.89299
▁P	-7.89339
▁경우	-7.89497
언	-7.8953
업	-7.89795
스트	-7.89977
▁당	-7.90198
량	-7.90362
령	-7.90672
금	-7.90973
각	-7.91009
▁군	-7.91167
▁어	-7.92231
▁첫	-7.92465
이었다	-7.92476
▁대한민국	-7.92837
▁17	-7.93365
두	-7.9355
▁것이다	-7.93568
▁했다	-7.94289
▁다음	-7.94357
▁타	-7.94372
G	-7.94377
▁종	-7.94679
▁D	-7.94702
▁영화	-7.94953
▁다음과	-7.95078
O	-7.95127
집	-7.95194
직	-7.95452
심	-7.9564
’	-7.96477
▁실	-7.97072
통	-7.97084
저	-7.97267
격	-7.97646
▁여	-7.97972
급	-7.98071
k	-7.98077
▁간	-7.98235
등	-7.98237
ar	-7.98459
▁지역	-7.9874
▁왕	-7.98872
었다	-7.99118
색	-7.99457
▁G	-7.99473
an	-7.99502
▁뒤	-7.99754
▁개	-7.99805
▁국가	-8.00392
▁여러	-8.004
▁F	-8.01062
▁사용	-8.01106
▁역사	-8.01542
▁교	-8.01568
버	-8.01965
▁예	-8.02178
▁기록	-8.02343
▁적	-8.0237
▁다시	-8.02479
▁외	-8.02482
▁‘	-8.02504
▁거	-8.02781
R	-8.02935
▁20	-8.03186
이라는	-8.03193
되고	-8.03577
▁모든	-8.04137
하였고	-8.04684
승	-8.05264
▁각	-8.05394
▁본	-8.0541
▁K	-8.05503
▁&	-8.0556
▁대한민국의	-8.05564
▁큰	-8.05642
목	-8.05713
온	-8.05844
▁일부	-8.06085
d	-8.06121
▁현재	-8.06223
더	-8.06231
투	-8.06282
▁모두	-8.06364
▁문	-8.06414
▁외부	-8.06713
음	-8.06848
l	-8.07355
약	-8.07749
개의	-8.07805
H	-8.0804
씨	-8.08042
메	-8.08249
들의	-8.08658
▁시즌	-8.08768
▁삼	-8.08931
건	-8.08985
▁-	-8.09028
▁연구	-8.09424
감	-8.09934
▁축구	-8.10033
▁토	-8.1017
출	-8.1031
▁14	-8.10475
p	-8.10657
품	-8.11101
or	-8.11491
배	-8.11525
이라고	-8.11563
▁중국	-8.11614
곡	-8.11668
예	-8.1207
태	-8.12253
6	-8.12306
▁등이	-8.12466
너	-8.12611
▁추	-8.12772
in	-8.12794
에도	-8.13521
▁박	-8.13529
f	-8.13785
▁L	-8.13825
림	-8.13908
평	-8.13978
▁관	-8.14028
▁위한	-8.1407
▁화	-8.14139
▁열	-8.14147
▁하는	-8.14471
절	-8.1451
증	-8.14646
▁라	-8.14837
▁N	-8.15106
▁19	-8.15134
en	-8.1521
▁전쟁	-8.15264
▁분	-8.15291
▁동안	-8.15402
초	-8.15529
베	-8.15777
함	-8.15974
복	-8.16137
했으며	-8.16206
편	-8.16283
▁프랑스	-8.1639
▁활동	-8.16841
▁국	-8.17008
I	-8.17101
20	-8.17228
항	-8.17261
▁링크	-8.17593
▁심	-8.17635
▁현	-8.17769
년부터	-8.17847
▁H	-8.18033
on	-8.18169
탄	-8.18254
광	-8.18371
▁요	-8.18698
▁영국	-8.18884
▁만	-8.19145
▁게임	-8.19168
▁13	-8.19233
N	-8.19875
보다	-8.20307
▁차	-8.20312
▁자신의	-8.20412
▁것	-8.20556
▁치	-8.20904
▁방	-8.20937
▁할	-8.21139
]]	-8.21432
창	-8.21468
▁E	-8.2153
▁페	-8.21631
▁같다	-8.21677
K	-8.21746
▁T	-8.22136
열	-8.22312
▁평	-8.22446
▁최	-8.22494
〉	-8.22581
환	-8.22784
▁개발	-8.23097
합	-8.2346
▁리그	-8.2365
이자	-8.2382
8	-8.24053
난	-8.24081
▁도시	-8.24295
리아	-8.24518
로서	-8.24712
▁감독	-8.24832
7	-8.24981
is	-8.25006
▁[[	-8.2515
▁것은	-8.25312
▁)	-8.25581
▁청	-8.25647
▁속	-8.25715
▁로	-8.25904
▁레	-8.26398
▁시작	-8.26544
▁사건	-8.26989
백	-8.27021
c	-8.27038
랑	-8.27219
층	-8.27561
▁베	-8.28118
▁이러한	-8.28184
▁조선	-8.2821
설	-8.28337
매	-8.28728
▁〈	-8.28732
면서	-8.28854
▁등의	-8.28987
▁북	-8.29227
▁메	-8.29235
지만	-8.29863
세기	-8.30171
▁감	-8.30222
▁선수	-8.30355
▁작품	-8.30849
결	-8.31042
준	-8.31353
하다	-8.31493
락	-8.3212
북	-8.32264
▁대해	-8.32415
▁독일	-8.3273
본	-8.32746
▁음악	-8.32794
at	-8.32984
~	-8.33168
른	-8.33582
료	-8.33798
▁번	-8.34555
g	-8.34645
처	-8.34938
▁광	-8.34985
되었으며	-8.35151
▁백	-8.35584
km	-8.35614
▁하지만	-8.35699
워	-8.35841
h	-8.359
▁국제	-8.35949
▁변	-8.36049
립	-8.36269
re	-8.36286
▁물	-8.36369
▁용	-8.36432
▁태	-8.36556
▁달	-8.36737
외	-8.37386
▁W	-8.37512
달	-8.37529
되었고	-8.37717
▁같이	-8.37778
순	-8.37911
▁하였다	-8.37965
년에는	-8.38007
▁야	-8.38136
b	-8.38546
▁R	-8.38598
별	-8.38618
불	-8.38945
▁생	-8.39097
▁30	-8.39162
ing	-8.39415
▁하나	-8.39418
▁저	-8.39632
페	-8.39874
▁볼	-8.40079
촌	-8.40119
▁아이	-8.40191
▁사회	-8.40294
▁인구	-8.4036
쓰	-8.40438
슨	-8.40496
살	-8.41141
▁서울	-8.4123
년까지	-8.4143
기를	-8.41482
▁2010	-8.41497
includeonly	-8.41728
us	-8.42031
했던	-8.42111
▁들어	-8.42136
추	-8.42198
▁못	-8.42232
▁미국의	-8.42328
▁임	-8.42422
▁팀	-8.4255
▁대통령	-8.42616
하였으며	-8.42698
으며	-8.4297
봉	-8.4309
▁천	-8.4333
▁지방	-8.43409
지는	-8.43568
▁키	-8.43789
로부터	-8.43836
▁등을	-8.43888
▁프로	-8.44025
되지	-8.44082
표	-8.44123
▁방송	-8.44281
▁점	-8.44489
▁쓰	-8.44575
▁아들	-8.44857
말	-8.44969
▁·	-8.45269
▁루	-8.45569
V	-8.45582
▁번째	-8.45598
▁금	-8.45609
▁위치한	-8.45817
▁음반	-8.4588
▁러시아	-8.45935
▁법	-8.46352
▁유럽	-8.46488
▁통	-8.46515
▁즉	-8.46529
암	-8.46575
▁이상	-8.46586
▁직	-8.46753
근	-8.46864
입	-8.46931
망	-8.47427
▁인해	-8.47474
변	-8.47875
날	-8.47963
▁J	-8.48004
▁특히	-8.48009
링	-8.48023
▁제작	-8.48048
이고	-8.48294
술	-8.48477
▁가지	-8.4861
성을	-8.4947
될	-8.49646
친	-8.49657
케	-8.49698
▁집	-8.49805
▁복	-8.49922
슈	-8.50003
▁생각	-8.50021
▁애	-8.5009
▁친	-8.50104
▁새로운	-8.50202
녀	-8.50361
기도	-8.50578
▁결정	-8.5073
▁주요	-8.50815
▁잘	-8.50828
▁곡	-8.50936
▁이어	-8.51231
ch	-8.51488
▁결과	-8.51573
▁문화	-8.5189
하면	-8.51963
▁O	-8.52172
▁대학	-8.52292
▁교육	-8.52315
우스	-8.52352
▁이는	-8.52516
▁기술	-8.52663
▁또	-8.52703
▁부분	-8.53062
극	-8.53244
향	-8.53291
it	-8.53302
U	-8.53463
번째	-8.53553
▁없다	-8.53556
박	-8.53594
퍼	-8.53642
자가	-8.53645
▁목	-8.53721
졌다	-8.53753
”	-8.53765
년대	-8.53859
▁대회	-8.54032
▁경기	-8.54181
▁올림픽	-8.54436
le	-8.54766
희	-8.54873
▁대표	-8.54877
▁패	-8.5492
명의	-8.55086
▁되어	-8.55124
▁창	-8.55528
w	-8.55656
▁진행	-8.55749
▁2008	-8.55811
▁전투	-8.55909
▁손	-8.56035
▁여성	-8.56155
▁네	-8.56407
름	-8.56889
▁받았다	-8.56949
들과	-8.56962
9	-8.57109
el	-8.57187
▁죽	-8.57267
▁I	-8.57305
▁공격	-8.57341
울	-8.57345
는데	-8.57359
▁V	-8.57363
▁로마	-8.57383
▁테	-8.57599
▁of	-8.57897
▁지원	-8.57983
▁“	-8.58369
z	-8.58391
▁투	-8.58481
▁황	-8.58677
▁날	-8.58689
▁이를	-8.58747
엔	-8.58871
10	-8.58924
커	-8.59119
렌	-8.593
]	-8.59301
독	-8.59699
송	-8.59708
▁회	-8.59752
탈	-8.59773
▁운영	-8.59918
▁항	-8.59996
철	-8.60019
례	-8.60178
▁봉	-8.60223
블	-8.60479
▁허	-8.6071
▁아니라	-8.60723
0	-8.60788
▁가지고	-8.6082
았다	-8.60953
▁이탈리아	-8.6103
▁중앙	-8.61084
et	-8.61225
▁상태	-8.61344
ro	-8.61453
▁2012	-8.61457
▁매우	-8.61499
악	-8.61588
▁2011	-8.61677
▁막	-8.62228
총	-8.62441
W	-8.62537
▁아버지	-8.62548
▁없는	-8.62653
▁대해서는	-8.62717
▁주로	-8.62824
▁관련	-8.6292
▁계	-8.62953
스터	-8.63145
축	-8.63266
▁성공	-8.63515
▁2007	-8.63562
▁생산	-8.63715
▁데뷔	-8.63795
▁2009	-8.63857
▁관계	-8.63912
▁않았다	-8.63936
▁충	-8.64031
칭	-8.64302
월에	-8.64304
▁있어	-8.64366
▁있고	-8.64556
▁자유	-8.64667
▁2014	-8.64675
리그	-8.64747
져	-8.64767
▁정도	-8.64878
▁버	-8.65085
000	-8.65192
▁편	-8.65308
▁드	-8.65488
▁있던	-8.65885
▁배우	-8.65975
▁문제	-8.66081
▁살	-8.66151
▁채	-8.66197
패	-8.66335
▁존	-8.66559
▁참가	-8.66864
▁판	-8.6687
▁별	-8.66925
▁25	-8.67068
▁밀	-8.67078
▁올	-8.6711
▁2018	-8.67222
▁시절	-8.67253
먼	-8.67297
▁온	-8.67396
했지만	-8.67439
덕	-8.67739
록	-8.67859
릴	-8.67877
▁학	-8.67994
이라	-8.68174
틀	-8.68193
▁줄	-8.68392
▁섬	-8.68518
위를	-8.68536
▁초기	-8.68545
▁구조	-8.68551
▁사망	-8.68588
에서도	-8.68596
율	-8.68618
▁하고	-8.68716
▁2013	-8.68918
ur	-8.68965
▁송	-8.68986
들에게	-8.69549
손	-8.6972
▁난	-8.69866
하기도	-8.69893
▁주장	-8.69968
▁독립	-8.70373
으로서	-8.7048
▁합	-8.70564
▁돌	-8.70818
;/	-8.70822
담	-8.70913
▁전체	-8.7099
▁운동	-8.71027
해서	-8.71084
스는	-8.711
▁2015	-8.7118
▁순	-8.71231
▁조직	-8.71238
든	-8.7134
▁처음	-8.71439
▁발견	-8.71449
▁결	-8.71483
▁2016	-8.7159
▁의미	-8.71748
▁사이	-8.71759
!	-8.72025
니아	-8.72035
플	-8.72107
▁맞	-8.72206
▁사람	-8.72307
▁구성	-8.72375
▁계획	-8.72422
_1	-8.72479
▁된	-8.72598
▁소속	-8.72624
▁21	-8.7263
▁디	-8.72747
▁경제	-8.72896
▁히	-8.72936
▁병	-8.72992
▁새	-8.73051
▁존재	-8.7328
▁계속	-8.73425
▁다양한	-8.73548
▁정부	-8.73683
▁길	-8.73939
사를	-8.73957
ed	-8.7407
▁우승	-8.7411
▁민	-8.74292
▁표	-8.74312
▁아래	-8.74448
▁노래	-8.74592
ic	-8.74677
▁않고	-8.75003
_	-8.75038
▁향	-8.75214
▁발생	-8.75502
벌	-8.75532
초등학교	-8.75589
상을	-8.75598
▁정치	-8.75624
▁윤	-8.75646
▁결국	-8.7569
ra	-8.75742
▁출전	-8.758
▁출	-8.75812
▁이용	-8.7584
돌	-8.76058
런	-8.76443
밀	-8.76514
겨	-8.76625
▁석	-8.76664
황	-8.76676
▁형	-8.76758
스타	-8.76992
▁행정	-8.77049
▁드라마	-8.77159
길	-8.77186
하자	-8.77196
▁2017	-8.7725
거나	-8.77336
▁앞	-8.77604
대학교	-8.7761
▁생애	-8.7794
됐다	-8.77957
▁프로그램	-8.78097
▁체	-8.78116
▁취	-8.78124
▁시리즈	-8.78217
팀	-8.78247
▁24	-8.78475
▁2006	-8.78475
▁반대	-8.78571
갈	-8.78643
▁분류	-8.78651
▁걸	-8.78653
▁학교	-8.78653
ol	-8.78774
군의	-8.78851
▁문서를	-8.78893
▁승	-8.79003
▁일본의	-8.79005
▁수도	-8.79098
머	-8.79123
▁식	-8.79232
▁누	-8.79235
해야	-8.79439
스의	-8.79576
es	-8.79732
빈	-8.79752
지를	-8.79808
▁칼	-8.79821
으나	-8.79867
▁열린	-8.79869
찰	-8.79884
▁곳	-8.80035
▁U	-8.80089
몬	-8.80173
경기	-8.80194
▁the	-8.80237
애	-8.80484
▁시간	-8.80778
▁발전	-8.80781
▁극	-8.80846
▁0	-8.80866
▁선거	-8.8097
X	-8.80971
▁많이	-8.8104
▁후보	-8.81411
하던	-8.81531
장을	-8.81543
x	-8.81563
▁시스템	-8.81593
ri	-8.81663
▁이름을	-8.81725
▁않는다	-8.81768
억	-8.81951
▁설립	-8.81985
규	-8.82031
▁팔	-8.82092
▁악	-8.82168
일부터	-8.82223
▁발매	-8.82235
▁대부분	-8.82285
▁2019	-8.82331
▁음	-8.82348
명이	-8.8236
▁한편	-8.82364
택	-8.82435
책	-8.82463
▁증	-8.82668
▁이전	-8.82706
▁평가	-8.8272
")	-8.82773
충	-8.82964
大	-8.83172
▁22	-8.83262
▁따르면	-8.83285
50	-8.83376
▁여자	-8.83653
처럼	-8.83656
▁국민	-8.83736
▁2000	-8.83811
▁개인	-8.83905
▁기준	-8.83918
되면서	-8.84187
J	-8.84191
골	-8.84198
▁23	-8.84349
▁앨범	-8.84464
▁참여	-8.84787
채	-8.85044
레이	-8.85176
▁폭	-8.85281
▁헤	-8.85453
▁추가	-8.855
▁특징	-8.85777
▁함	-8.85832
▁관한	-8.85833
▁인물	-8.85901
▁현대	-8.85905
리스	-8.86182
▁후에	-8.86193
▁거의	-8.86382
▁높은	-8.86572
위원회	-8.8669
▁영향을	-8.86905
삼	-8.87022
범	-8.87047
▁고려	-8.8723
▁홍	-8.87301
나라	-8.87358
▁그룹	-8.87418
▁가운데	-8.87633
▁표현	-8.87797
리는	-8.88016
」	-8.88274
십	-8.88435
▁이에	-8.88478
▁시대	-8.88565
▁따라서	-8.88584
섬	-8.88657
▁유지	-8.88713
▁위치	-8.88798
으로부터	-8.88905
▁2020	-8.88908
▁눈	-8.89318
▁게	-8.89358
▁쇼	-8.89367
▁관리	-8.89384
▁권	-8.89769
▁포함	-8.89793
▁2005	-8.89946
▁각각	-8.90112
▁인정	-8.90505
▁작은	-8.9065
액	-8.9082
했으나	-8.9087
학교	-8.90893
되며	-8.9093
궁	-8.90977
쪽	-8.91012
am	-8.91148
▁몸	-8.91156
ation	-8.91181
▁진출	-8.91283
▁28	-8.91291
▁않은	-8.91319
턴	-8.91356
▁특	-8.91591
st	-8.91671
▁언어	-8.91696
ad	-8.91723
센	-8.91765
▁책	-8.91887
▁아니	-8.92098
▁설치	-8.92167
자를	-8.92178
▁군사	-8.92208
》(	-8.92391
▁형성	-8.9242
j	-8.92517
▁암	-8.9263
▁개요	-8.92643
▁뜻은	-8.92664
숙	-8.92679
▁담	-8.92714
▁철도	-8.92734
막	-8.92822
▁26	-8.92851
능	-8.9292
자는	-8.93
▁내용	-8.93166
▁발표	-8.93383
▁인도	-8.93412
움	-8.93422
였던	-8.93505
▁알려져	-8.93524
션	-8.93568
il	-8.93618
▁해당	-8.93765
긴	-8.93767
자로	-8.93941
올	-8.9396
▁회사	-8.9403
▁귀	-8.94051
▁27	-8.94137
15	-8.94241
▁건설	-8.9435
▁기간	-8.94691
▁모델	-8.94804
컵	-8.94911
11	-8.94949
▁참고하십시오	-8.95046
권을	-8.95053
th	-8.95066
▁받아	-8.95111
▁차지	-8.95348
▁농	-8.95352
시에	-8.95352
▁커	-8.95532
염	-8.95624
넘겨주기	-8.95668
▁/	-8.95681
▁대신	-8.96014
습	-8.96197
▁가진	-8.96211
16	-8.96271
▁격	-8.96309
▁행	-8.96332
명을	-8.96487
▁브	-8.96588
▁노선	-8.96794
▁지구	-8.96846
▁이론	-8.97048
("	-8.97063
13	-8.97231
▁슈	-8.97531
▁2004	-8.97555
▁되는	-8.97586
와의	-8.97912
▁사이에	-8.97981
▁기업	-8.98068
흥	-8.98233
as	-8.98245
하는데	-8.98313
▁급	-8.98445
혜	-8.98463
▁독	-8.98488
훈	-8.98607
▁결혼	-8.98614
▁자연	-8.98744
▁건물	-8.98899
▁플	-8.98959
▁제국	-8.99238
▁기타	-8.99387
▁중요한	-8.99419
▁활약	-8.99449
▁직접	-8.99461
클	-8.99546
ir	-8.99665
▁스페인	-8.99784
-1	-8.99789
▁정의	-8.99808
널	-8.99981
▁일반	-9.00001
▁경력	-9.00011
▁100	-9.00163
기에	-9.0028
얼	-9.00315
la	-9.00323
점을	-9.00357
필	-9.00485
▁혼	-9.00607
▁철	-9.00649
풍	-9.00684
▁근	-9.00959
헌	-9.01151
▁않는	-9.01295
흐	-9.01411
▁설	-9.01416
▁싱글	-9.01507
▁몇	-9.01538
▁변화	-9.01685
▁접	-9.01703
▁참	-9.01907
▁성우	-9.02115
▁글	-9.02294
▁이름	-9.02321
▁끝	-9.02382
트로	-9.0243
▁없	-9.02472
ne	-9.0251
대학	-9.02645
▁들	-9.02899
▁설명	-9.03063
▁수상	-9.03381
ia	-9.03431
▁시작했다	-9.03892
착	-9.03901
12	-9.03915
▁딸	-9.04001
▁레이	-9.04032
▁「	-9.04173
▁목록	-9.04276
하였으나	-9.04777
▁공간	-9.04952
▁출신	-9.04961
▁나라	-9.05048
자의	-9.05049
▁29	-9.05127
▁우리	-9.05254
▁대전	-9.05299
▁쿠	-9.05323
글	-9.0556
▁벌	-9.05587
▁그리스	-9.05682
▁사업	-9.05779
▁운행	-9.05782
▁원래	-9.05866
▁대학교	-9.05866
▁절	-9.05979
▁크게	-9.06009
▁FC	-9.06071
옥	-9.06133
▁출연	-9.06255
춘	-9.06339
▁서로	-9.06434
기가	-9.06482
te	-9.06629
▁조사	-9.06946
귀	-9.06958
성이	-9.07099
분류	-9.07469
▁최고	-9.07695
갔다	-9.07714
빌	-9.07784
▁과학	-9.07819
▁필	-9.0782
▁최대	-9.07828
▁있는데	-9.07866
▁준	-9.07908
▁요구	-9.07978
▁기준으로	-9.08033
▁만들어	-9.08062
▁등장	-9.0807
효	-9.08097
람	-9.08283
▁보고	-9.08309
▁제공	-9.08704
▁마지막	-9.09028
▁검	-9.09097
균	-9.0912
▁밴드	-9.09222
▁인간	-9.09291
익	-9.09455
쳐	-9.09474
야마	-9.09492
▁몰	-9.09508
id	-9.09576
▁역시	-9.09622
일까지	-9.09686
버스	-9.09794
▁말한다	-9.09986
▁아닌	-9.10135
▁건	-9.10252
▁지지	-9.10356
▁일반적으로	-9.1037
중학교	-9.10393
amp	-9.10395
확	-9.10425
▁축	-9.10536
▁역할을	-9.10559
18	-9.10684
스키	-9.10692
대로	-9.10913
▁어떤	-9.11002
▁폐	-9.11007
▁판매	-9.11057
▁비판	-9.11072
누	-9.11122
득	-9.11205
좌	-9.11218
▁과거	-9.11327
▁맥	-9.11445
▁갈	-9.11473
▁증가	-9.11638
▁소련	-9.11706
▁받	-9.11718
▁수행	-9.11725
▁잡	-9.1174
하지만	-9.11767
롤	-9.11806
슬	-9.11813
▁클럽	-9.11949
▁빌	-9.12007
엘	-9.12131
▁2002	-9.12177
▁필요	-9.12189
찬	-9.12253
▁영화이다	-9.12274
▁사실	-9.12343
있다	-9.12373
▁달리	-9.1249
▁형태	-9.12503
▁긴	-9.12599
라이	-9.1262
▁휴	-9.12681
▁풍	-9.12699
▁중심	-9.12705
▁동시에	-9.12708
자리	-9.12745
▁샤	-9.12973
▁마을	-9.13248
▁태어났다	-9.13253
30	-9.13295
텐	-9.13369
▁가수	-9.13374
14	-9.13525
▁연결	-9.13646
un	-9.13719
하거나	-9.13795
운동	-9.14048
시간	-9.14131
▁인구는	-9.14305
▁경기에서	-9.14311
기는	-9.14382
▁그가	-9.1441
이기도	-9.14562
▁2003	-9.14789
▁있을	-9.14799
▁빈	-9.14876
▁처	-9.15076
▁최초의	-9.15078
▁야구	-9.15141
존	-9.15189
▁퍼	-9.1522
▁공개	-9.15223
랜드	-9.15238
mm	-9.15258
▁정보	-9.15308
▁이동	-9.15404
▁우주	-9.15426
▁도쿄	-9.15444
▁좌	-9.15517
취	-9.15584
과의	-9.15746
칸	-9.15747
▁자기	-9.15794
▁월드컵	-9.15798
었고	-9.1582
▁처음으로	-9.15898
척	-9.15901
▁거쳐	-9.16136
▁교회	-9.16159
▁골	-9.16185
했는데	-9.16267
▁어머니	-9.16291
90	-9.1634
벨	-9.16424
▁공식	-9.16454
▁상황	-9.16497
▁교수	-9.16543
볼	-9.16575
▁푸	-9.1658
학자	-9.16695
▁놓	-9.16824
▁퇴	-9.16866
이었던	-9.17027
▁산업	-9.17111
▁사랑	-9.1712
▁환	-9.17144
▁상대	-9.17271
군은	-9.17358
진다	-9.17594
▁황제	-9.17634
▁명칭	-9.17672
▁의한	-9.17733
▁가족	-9.17892
▁m	-9.17961
측	-9.1805
se	-9.18322
▁연방	-9.18326
▁이야기	-9.18544
▁경기도	-9.18564
山	-9.18646
거리	-9.18655
완	-9.18729
협	-9.18762
▁겸	-9.1887
▁남자	-9.18964
스크	-9.19019
군에	-9.19043
윤	-9.19125
▁31	-9.19174
▁1990	-9.19184
▁도입	-9.19251
폭	-9.1929
▁p	-9.19302
모토	-9.19361
▁프리	-9.19456
▁기관	-9.19484
쥐	-9.1954
쉬	-9.1965
▁방법	-9.19692
[	-9.19711
▁방식	-9.19976
▁따	-9.1999
▁면	-9.1999
샤	-9.20056
▁주변	-9.20085
젠	-9.20115
▁전문	-9.20181
▁지역의	-9.20253
▁작업	-9.20271
Y	-9.20273
▁행동	-9.20292
▁변경	-9.20334
사가	-9.20374
▁사상	-9.20507
톤	-9.20539
▁정책	-9.2057
ter	-9.20692
되기	-9.20699
▁부르	-9.20889
um	-9.21027
▁트	-9.21075
회의	-9.21204
▁제도	-9.21215
▁육	-9.2127
▁2021	-9.21276
까	-9.21283
▁[	-9.21296
리에	-9.21361
▁보호	-9.21483
랜	-9.21524
▁혹은	-9.21668
om	-9.2175
싱	-9.21797
시아	-9.21817
▁애니메이션	-9.21955
▁실시	-9.22118
동음이의	-9.22268
스와	-9.22277
▁캐	-9.2246
고등학교	-9.22695
력을	-9.22753
탁	-9.22995
▁공연	-9.23086
시켰다	-9.23099
ent	-9.23117
▁침	-9.233
읍	-9.23362
0%	-9.23369
참	-9.23396
푸	-9.23415
金	-9.23561
▁작	-9.23577
▁승리	-9.23626
▁완	-9.23673
멘	-9.23712
▁기능	-9.23797
os	-9.23824
▁보통	-9.23849
쇼	-9.2418
17	-9.24199
폐	-9.24319
ot	-9.24325
▁있다고	-9.2434
▁공화국	-9.24598
▁개최	-9.24805
▁적용	-9.24844
▁전국	-9.25041
ut	-9.25188
▁차량	-9.25302
▁거리	-9.25527
들에	-9.25542
▁위하여	-9.2557
▁졸업	-9.25573
▁의원	-9.25605
▁니	-9.257
▁지배	-9.25875
님	-9.25978
호선	-9.2602
념	-9.26032
▁환경	-9.26055
▁St	-9.2618
▁탈	-9.26197
리가	-9.26249
ul	-9.26334
▁텔레비전	-9.2638
▁국내	-9.26502
▁배우이다	-9.26673
▁공동	-9.26707
▁모양	-9.26723
60	-9.26724
▁아직	-9.26759
▁*	-9.26794
하라	-9.26903
▁민족	-9.26912
트라	-9.2694
헤	-9.27067
▁임명	-9.27119
률	-9.27267
▁이들	-9.27326
▁이때	-9.27343
▁생활	-9.27347
기관	-9.27389
а	-9.27448
▁받은	-9.27497
▁국가대표팀	-9.27529
▁승강장	-9.27534
▁통합	-9.27595
▁바로	-9.27658
▁규모	-9.27719
장이	-9.27752
스카	-9.27908
▁높이	-9.2798
▁효과	-9.27985
▁될	-9.28039
▁소설	-9.28056
▁없이	-9.28136
▁색	-9.28167
▁캐나다	-9.28214
섭	-9.28304
▁있지만	-9.28425
▁전기	-9.28457
▁반응	-9.28458
마다	-9.28595
방송	-9.28685
룡	-9.28735
▁de	-9.28753
▁이것은	-9.28782
▁지나	-9.28786
▁지휘	-9.28795
▁담당	-9.28851
검	-9.29016
▁티	-9.29168
ie	-9.29171
▁사람들	-9.29171
▁뉴욕	-9.2924
▁기원전	-9.29346
▁2001	-9.29436
▁지정	-9.29664
세의	-9.29692
▁특정	-9.29728
딩	-9.29735
욕	-9.29763
80	-9.29788
li	-9.29953
▁경찰	-9.30102
cm	-9.30276
알	-9.30284
▁보내	-9.30397
스가	-9.30426
▁마음	-9.3043
팅	-9.30487
▁나가	-9.30508
▁염	-9.30527
lo	-9.30662
▁교황	-9.30674
쟁	-9.30686
v	-9.30749
레스	-9.30772
폴	-9.30897
▁케	-9.30912
사회	-9.30951
▁기본	-9.30964
압	-9.31027
▁맡	-9.31155
객	-9.31169
▁언급	-9.31358
▁대체	-9.31367
▁라이	-9.31632
▁개의	-9.31639
뉴	-9.3165
▁성장	-9.31705
▁이미	-9.31792
콘	-9.31804
▁측	-9.31831
_2	-9.31876
▁열차	-9.32006
▁크기	-9.32041
이지만	-9.3206
장으로	-9.32066
▁TV	-9.32112
▁형식	-9.32141
▁뉴	-9.32182
▁확인	-9.3226
▁만든	-9.32391
▁시장	-9.32396
▁도로	-9.32443
▁때문이다	-9.32458
The	-9.32506
▁클	-9.32628
▁개념	-9.32676
▁50	-9.32694
▁풀	-9.32759
▁자체	-9.32802
ay	-9.32874
▁대부분의	-9.329
있는	-9.33039
다가	-9.33071
im	-9.33137
op	-9.33227
▁있어서	-9.33294
시켜	-9.33322
40	-9.33322
새	-9.33341
▁어느	-9.33345
▁작가	-9.334
▁자신이	-9.33458
▁선택	-9.33465
▁서비스	-9.33474
▁전자	-9.33497
▁이적	-9.33504
▁지금	-9.33541
▁시기	-9.33561
교육	-9.33564
리를	-9.3361
▁왕국	-9.337
비아	-9.33744
련	-9.33881
렸다	-9.33897
화를	-9.3392
?	-9.33977
킨	-9.34011
▁나이	-9.34144
▁종류	-9.34191
李	-9.34196
▁육군	-9.34341
▁실패	-9.34592
▁남부	-9.34734
▁마르	-9.35106
▁1980	-9.35122
▁종교	-9.35185
왔다	-9.35309
▁붙	-9.3536
▁다이	-9.35371
▁기독교	-9.35423
▁중심으로	-9.3544
▁자료	-9.35455
ig	-9.35475
있	-9.35531
침	-9.35653
하도록	-9.35733
▁찾	-9.35738
▁크	-9.35749
견	-9.35833
▁보이	-9.35835
▁2022	-9.35912
▁힘	-9.35937
전에서	-9.36013
▁올라	-9.36034
▁세력	-9.36097
혼	-9.36125
▁이상의	-9.36153
▁엘	-9.36197
▁태양	-9.36212
▁세포	-9.36268
▁먹	-9.36282
어로	-9.36296
▁찾아	-9.36348
했을	-9.36355
셔	-9.36378
▁낙	-9.36379
선의	-9.36381
▁버전	-9.36413
▁되고	-9.36523
▁현재의	-9.36632
▁연주	-9.36702
▁칸	-9.36703
쳤다	-9.36708
▁단체	-9.36712
▁컴퓨터	-9.36752
▁사고	-9.36839
▁동물	-9.36863
나무	-9.36952
▁최종	-9.36999
맨	-9.37054
자와	-9.37086
시키는	-9.37188
럼	-9.3721
스를	-9.37262
▁받고	-9.37468
#	-9.37536
수를	-9.37673
렬	-9.37682
웨이	-9.37697
▁기념	-9.37753
▁숙	-9.37761
▁교통	-9.3796
큐	-9.37969
▁디자인	-9.37971
▁머리	-9.3798
전을	-9.38042
일본	-9.38069
펠	-9.38117
홍	-9.38167
핀	-9.38254
▁자신	-9.3829
▁부족	-9.38473
и	-9.3856
김	-9.38692
▁1999	-9.3884
엄	-9.38966
▁확장	-9.39036
받	-9.39136
▁콜	-9.39172
▁참고	-9.39188
ow	-9.39243
)&	-9.39256
시마	-9.39261
▁고대	-9.39264
▁하며	-9.39266
▁민주	-9.39289
▁그녀는	-9.39325
육	-9.39423
카와	-9.39456
▁내부	-9.39553
명이다	-9.39662
▁구역	-9.39896
▁항공	-9.40032
▁가능	-9.40084
▁FIFA	-9.40252
닌	-9.40324
▁보인다	-9.40332
▁과정	-9.40358
▁이런	-9.4046
▁스타	-9.40488
냐	-9.40554
▁1998	-9.40557
▁잔	-9.40638
▁s	-9.40666
▁조건	-9.40701
▁출시	-9.40717
기로	-9.40773
▁b	-9.40796
▁정당	-9.40804
▁블	-9.40835
▁잠	-9.4093
혀	-9.40949
21	-9.41021
지고	-9.41023
▁구단	-9.41085
01	-9.41124
▁X	-9.41162
▁거주	-9.41194
허	-9.41249
▁협	-9.413
▁부산	-9.4144
▁규정	-9.41462
▁출판	-9.41525
혈	-9.41551
짜	-9.41623
했	-9.41629
▁에너지	-9.41653
▁구간	-9.41707
물을	-9.41709
롱	-9.4171
스티	-9.41748
▁연합	-9.41771
▁대상	-9.4182
▁#	-9.4186
갑	-9.41888
▁없었다	-9.41986
▁묘	-9.42039
틴	-9.42176
▁하여	-9.42196
▁치료	-9.42243
▁소유	-9.42281
▁입단	-9.42339
둥	-9.4234
▁성격	-9.42424
▁돌아	-9.42542
▁북부	-9.42582
▁설계	-9.42595
함으로써	-9.42667
골을	-9.42708
▁c	-9.42785
▁그들의	-9.42842
25	-9.42969
났다	-9.43065
촉	-9.43075
▁최근	-9.43077
▁두고	-9.43159
▁영어	-9.43161
▁땅	-9.43185
싸	-9.43196
–	-9.43223
응	-9.43248
▁표준	-9.43351
칼	-9.43447
명은	-9.43668
о	-9.43748
▁타이	-9.43789
▁배경	-9.43928
▁걸쳐	-9.43996
▁하다	-9.44103
▁더욱	-9.44208
▁전통	-9.44339
문화	-9.44455
▁f	-9.44479
▁이름은	-9.44524
원을	-9.44546
▁유래	-9.44606
▁프레	-9.44645
▁옥	-9.44657
▁탄	-9.44693
트리	-9.44759
▁하이	-9.44877
▁울	-9.44947
▁지역에	-9.45124
영화	-9.45203
팔	-9.45204
젤	-9.45205
▁일어나	-9.45312
핑	-9.45313
▁둘	-9.45333
지로	-9.45343
묘	-9.45544
70	-9.4558
농	-9.45596
▁연속	-9.45668
셀	-9.45809
▁말했다	-9.4584
▁캐릭터	-9.45932
▁대중	-9.45937
▁속하는	-9.45944
▁사람이	-9.4595
▁시설	-9.45972
▁선수로	-9.45987
텔	-9.4601
▁알려진	-9.46023
▁그를	-9.46136
▁제작된	-9.46346
▁대하여	-9.46365
▁연기	-9.46406
접	-9.46604
48	-9.46637
▁효	-9.46705
▁요시	-9.46726
▁활동을	-9.46772
▁스위스	-9.46781
』	-9.46859
▁1995	-9.46861
▁질	-9.46868
▁기반	-9.46891
수가	-9.46917
▁잉글랜드	-9.46993
맥	-9.47071
▁1997	-9.47221
▁자리	-9.47323
위원	-9.47359
군이	-9.47446
▁아르	-9.47472
200	-9.47487
▁사이의	-9.47546
▁내려	-9.47616
사로	-9.47653
▁아시아	-9.47664
▁에이	-9.47688
▁40	-9.47755
가지	-9.4778
▁헌법	-9.47929
했다고	-9.47978
▁명령	-9.4803
▁감독의	-9.48034
개월	-9.48135
▁좋은	-9.48168
▁선언	-9.48174
▁있었던	-9.48174
▁지진	-9.4823
▁것이라고	-9.48248
장은	-9.48277
▁미국에서	-9.48327
▁예술	-9.48344
▁후반	-9.48461
)·	-9.48484
씩	-9.48493
▁1996	-9.48506
자들은	-9.48532
▁편집	-9.48566
곤	-9.48629
▁사용하는	-9.48668
▁되었고	-9.48672
위로	-9.48709
and	-9.48719
지에	-9.48739
베르	-9.48767
▁포함한	-9.48779
▁부문	-9.48821
폰	-9.48865
▁혁명	-9.48892
▁선정	-9.48972
시키	-9.48986
위에	-9.49019
▁지역에서	-9.49083
▁옛	-9.49084
힌	-9.49274
▁작전	-9.49382
▁주도	-9.49383
▁해군	-9.49445
▁분리	-9.49463
▁결합	-9.49552
벽	-9.49558
▁남성	-9.49662
▁모습을	-9.49715
지역	-9.49743
▁선발	-9.4979
스코	-9.49894
▁용어	-9.49897
나가	-9.50027
▁핵	-9.50047
▁데이터	-9.50053
+	-9.50057
▁강화	-9.50096
▁발매된	-9.50122
▁예를	-9.50127
겐	-9.50193
▁실험	-9.50203
▁폴란드	-9.50223
▁은퇴	-9.50282
델	-9.50288
대를	-9.50411
▁모습	-9.50445
▁분석	-9.50485
е	-9.50488
이란	-9.50674
▁최초로	-9.5089
식을	-9.51018
▁제안	-9.51058
▁바이	-9.51123
▁칭	-9.51208
▁점령	-9.51243
▁하나이다	-9.51256
▁평균	-9.5129
▁프	-9.51367
프로	-9.51507
군을	-9.51553
▁1970	-9.51602
co	-9.51617
▁의회	-9.51662
-2	-9.51685
▁정신	-9.51711
▁불구하고	-9.51732
▁이유로	-9.51757
베이	-9.5181
치는	-9.51821
스케	-9.51823
호로	-9.51856
▁워	-9.52021
세가	-9.52097
빙	-9.5216
▁있게	-9.52198
▁가리킨다	-9.52238
▁않다	-9.52296
년간	-9.52318
▁방영	-9.5232
튼	-9.5239
р	-9.52402
▁파리	-9.52441
▁만들	-9.52484
▁가문	-9.52496
ac	-9.52511
▁엔진	-9.52537
▁정규	-9.52541
▁and	-9.52656
▁제품	-9.52699
줄	-9.5272
틸	-9.52762
▁공항	-9.52822
ine	-9.52822
▁학생	-9.52826
▁만나	-9.5284
em	-9.52902
▁요소	-9.52957
▁네덜란드	-9.53024
▁멤버	-9.53059
▁부상	-9.53093
컬	-9.53124
▁오늘날	-9.53134
▁그들은	-9.53185
▁북한	-9.53198
▁홀	-9.532
임을	-9.5323
▁생성	-9.53409
▁d	-9.53411
▁1994	-9.5344
▁망	-9.53444
▁나타나	-9.53535
▁돈	-9.53563
▁원인	-9.5357
▁속도	-9.53581
▁방문	-9.53741
▁괴	-9.53766
▁경험	-9.53778
제를	-9.53901
▁의사	-9.53946
선을	-9.53958
성과	-9.54128
▁The	-9.54193
▁곧	-9.5421
|	-9.54217
▁하계	-9.54236
▁엄	-9.54251
99	-9.54392
09	-9.54401
시대	-9.54446
▁군대	-9.54544
▁번역	-9.54568
▁논란	-9.54664
▁이름으로	-9.54715
▁운	-9.54732
▁시도	-9.54742
탕	-9.54763
23	-9.54777
릭	-9.54804
▁목적	-9.54892
▁비슷한	-9.54946
▁분포	-9.54966
정부	-9.54971
▁1992	-9.55101
▁등에	-9.55111
음을	-9.55307
학적	-9.55316
ell	-9.5535
▁밝혔다	-9.55353
▁통과	-9.55503
▁완전히	-9.55538
▁길이	-9.55628
▁슬	-9.55632
▁등으로	-9.55653
▁휘	-9.55756
▁의미한다	-9.55872
▁표기	-9.55963
늘	-9.55977
▁프로젝트	-9.56073
▁수준	-9.56138
때	-9.56222
▁맡았다	-9.56283
▁그림	-9.56292
자인	-9.56302
▁견	-9.56343
▁서울특별시	-9.56376
▁들어가	-9.56419
▁사진	-9.565
▁하나로	-9.5656
▁지정되었다	-9.56574
▁것에	-9.56662
냈다	-9.56699
되기도	-9.567
▁아프리카	-9.56724
▁친구	-9.56794
지가	-9.56824
▁구분	-9.56875
▁전에	-9.56898
▁낮	-9.5692
▁이해	-9.56942
Q	-9.56949
▁작곡	-9.56964
ver	-9.56973
▁좋아	-9.56989
▁예선	-9.56995
세대	-9.57047
▁건축	-9.57131
▁가정	-9.57145
▁제한	-9.57176
▁자치	-9.57265
▁가치	-9.57348
닉	-9.57468
▁엔	-9.575
▁이들은	-9.57501
리오	-9.57543
▁배치	-9.57554
일에는	-9.57618
세는	-9.57625
▁접근	-9.57628
칙	-9.57631
▁노력	-9.57631
é	-9.57674
br	-9.57708
TV	-9.57749
▁나머지	-9.57867
▁있기	-9.57945
▁조약	-9.58148
▁불리	-9.5815
ive	-9.58179
文	-9.58199
▁본선	-9.58206
앙	-9.58211
▁스포츠	-9.58285
몽	-9.58475
▁제조	-9.58493
me	-9.58501
▁물질	-9.58602
스토	-9.58639
▁베트남	-9.58659
▁성적	-9.58692
▁이와	-9.58697
되었으나	-9.58763
퇴	-9.58859
인데	-9.58902
▁계약	-9.5891
▁높	-9.59031
카이	-9.59108
▁궁	-9.59114
▁머	-9.59121
▁통치	-9.59171
▁범	-9.59199
되자	-9.59232
▁지명	-9.59391
▁밤	-9.59519
▁때까지	-9.59573
王	-9.59593
▁터	-9.59621
▁기여	-9.59624
▁달러	-9.59696
▁뿐	-9.59829
64	-9.59833
▁찬	-9.59833
36	-9.59891
▁못했다	-9.59933
칠	-9.60034
▁현상	-9.60059
▁언론	-9.60125
▁분야	-9.6016
▁발매되었다	-9.60229
▁1991	-9.60239
▁응	-9.60243
관계	-9.60304
▁자주	-9.60339
▁런던	-9.60384
98	-9.60411
95	-9.60428
▁파괴	-9.6048
▁경계	-9.605
명으로	-9.60536
바이	-9.60588
24	-9.6063
▁요리	-9.60658
옹	-9.6088
▁비행	-9.61024
▁철학	-9.61055
▁익	-9.61362
▁발달	-9.61447
▁헌	-9.61458
▁북쪽	-9.61492
월부터	-9.61538
간다	-9.61541
문을	-9.61688
ill	-9.61791
▁부여	-9.61841
▁소재	-9.61919
▁노동	-9.61926
▁있도록	-9.61953
▁쓴	-9.61966
▁콘	-9.621
▁1960	-9.62171
▁집단	-9.62172
▁1993	-9.62279
▁반면	-9.62306
子	-9.62312
▁비해	-9.62333
도록	-9.62403
ha	-9.6241
▁in	-9.6241
었	-9.62414
▁함수	-9.6244
▁벨	-9.62449
뢰	-9.62458
콩	-9.62496
▁문학	-9.62636
▁남쪽	-9.62657
▁준비	-9.62664
▁만화	-9.62839
▁국회의원	-9.62884
▁문자	-9.62892
갔	-9.62947
ag	-9.62977
▁압	-9.63013
겼다	-9.63047
딘	-9.63104
▁지도	-9.63205
ma	-9.63256
펜	-9.63307
▁행사	-9.63315
▁『	-9.63396
빠	-9.63431
▁존재한다	-9.63569
▁처리	-9.636
▁작용	-9.63625
▁영토	-9.63635
▁영국의	-9.63698
죄	-9.63757
▁부대	-9.63872
ta	-9.6398
▁선수권	-9.64019
▁묘사	-9.64024
▁복귀	-9.64031
38	-9.64075
▁넘	-9.64118
▁널리	-9.64186
킹	-9.64274
▁부정	-9.64291
덴	-9.64302
웅	-9.64306
ab	-9.64308
國	-9.6434
州	-9.6434
all	-9.64352
▁획득	-9.64466
▁고등학교	-9.64488
▁요청	-9.64523
art	-9.64682
▁이곳	-9.64715
▁Re	-9.64731
시즌	-9.64761
렉	-9.64782
▁사라	-9.64787
▁기초	-9.64836
di	-9.64954
▁경쟁	-9.64978
하려	-9.65037
▁정도로	-9.65079
ard	-9.65085
▁조정	-9.65096
트를	-9.65135
37	-9.65145
혹	-9.65164
96	-9.65239
▁수용	-9.65259
롭	-9.65299
▁뜻에	-9.65303
벤	-9.6536
▁통일	-9.65439
▁따른	-9.65489
▁남아	-9.65537
▁많다	-9.65553
낸	-9.65582
즘	-9.65659
▁비디오	-9.65687
대회	-9.65698
엽	-9.65839
굴	-9.6588
드는	-9.65889
▁총리	-9.6593
▁야마	-9.65933
▁하나의	-9.6596
메이	-9.66002
▁지난	-9.66018
▁위험	-9.66091
ge	-9.6611
▁km	-9.6611
▁오스트리아	-9.66125
▁해석	-9.6618
▁빛	-9.66344
▁책임	-9.66356
렸	-9.66398
▁주제	-9.66409
스턴	-9.6641
▁밝	-9.66493
▁기록했다	-9.66532
▁추정	-9.66537
▁선출	-9.66541
▁영향	-9.66594
_3	-9.66669
▁출생	-9.66691
▁스스로	-9.66692
루스	-9.66726
▁방어	-9.66756
즐	-9.66835
io	-9.66839
동안	-9.66844
멸	-9.6691
▁과정에서	-9.66998
ate	-9.67039
▁현재는	-9.67105
왔	-9.67139
닥	-9.67139
났	-9.67144
中	-9.67221
▁차례	-9.67253
▁근처	-9.674
▁UEFA	-9.67423
릿	-9.67465
▁체계	-9.67482
▁차이	-9.67505
od	-9.67659
▁국립	-9.67696
▁이듬해	-9.67699
▁정리	-9.67708
점이	-9.67744
▁브라질	-9.6778
세를	-9.67807
75	-9.6781
▁의하여	-9.67831
▁행위	-9.67844
호를	-9.679
▁입장	-9.67927
▁우승을	-9.68034
▁사람들이	-9.68083
▁그러	-9.68153
65	-9.68157
탑	-9.68189
▁않아	-9.6832
▁나오	-9.68333
▁해결	-9.68348
▁슈퍼	-9.68371
to	-9.68413
하였는데	-9.68467
▁실제로	-9.68477
곱	-9.68488
▁중에	-9.68499
▁폴	-9.6853
▁레코드	-9.68567
▁세워	-9.68583
릉	-9.68587
▁개혁	-9.68718
▁인식	-9.68729
▁1988	-9.68767
라운드	-9.68819
▁역임	-9.6884
으	-9.68887
켈	-9.68888
▁그녀의	-9.68907
▁Y	-9.68936
사와	-9.68955
35	-9.68988
▁흥	-9.68999
▁헬	-9.69069
누스	-9.69084
▁버스	-9.69119
▁선수이다	-9.69175
▁인터넷	-9.69178
▁단계	-9.69183
▁패배	-9.69185
▁능력	-9.69192
22	-9.69246
▁감소	-9.69253
월에는	-9.69398
▁일어난	-9.69399
na	-9.69516
닐	-9.69578
▁사용한다	-9.69591
센터	-9.69649
pe	-9.6968
단체	-9.69772
▁거부	-9.69787
으로써	-9.69866
돈	-9.69882
▁영역	-9.69902
村	-9.69911
트는	-9.6992
▁법률	-9.70011
랄	-9.70165
넷	-9.70184
밍	-9.70208
人	-9.7021
▁논	-9.70328
린다	-9.70331
▁갖고	-9.70356
ly	-9.70374
▁면적은	-9.70383
33	-9.70511
▁비롯한	-9.70529
데스	-9.70579
▁왕조	-9.70626
어서	-9.70645
▁정치적	-9.70678
39	-9.70693
est	-9.70698
88	-9.70714
다고	-9.70805
▁시민	-9.70846
▁쌍	-9.70906
▁보기	-9.70934
징	-9.70942
▁그리	-9.71056
학과	-9.71095
자들이	-9.71101
55	-9.71102
▁평화	-9.71143
▁사용된다	-9.71172
▁추진	-9.71192
▁자동차	-9.71217
닝	-9.71241
ti	-9.71258
▁원자	-9.71316
▁1989	-9.71317
▁것과	-9.71375
▁넘어	-9.71418
▁위에	-9.71477
▁오르	-9.71581
▁지도자	-9.71585
▁홈	-9.71616
ph	-9.7162
92	-9.7165
ᆞ	-9.71678
03	-9.71685
▁왜	-9.71688
▁수록	-9.71724
하다가	-9.71771
ce	-9.71784
ap	-9.71813
▁서부	-9.71861
▁동부	-9.71896
졌	-9.71915
▁죽음	-9.71958
조선	-9.71969
▁이전에	-9.72027
▁In	-9.72065
▁이름이	-9.72087
▁지속	-9.72111
▁외교	-9.72118
▁그것	-9.72147
34	-9.72205
▁탐	-9.72224
▁어린	-9.7227
▁동맹	-9.72297
▁마리	-9.723
략	-9.72384
첨	-9.72426
정보	-9.7248
▁나중에	-9.72588
니스	-9.72613
三	-9.72631
서를	-9.72644
▁무기	-9.72649
▁다수	-9.72676
▁Co	-9.72786
▁음반이다	-9.72851
▁유명한	-9.7295
▁센	-9.73013
학생	-9.73026
▁그대로	-9.73059
▁록	-9.73097
▁설정	-9.73125
사업	-9.73196
▁표시	-9.73261
선거	-9.73262
▁초대	-9.73322
▁가져	-9.73353
▁문헌	-9.73359
▁스웨덴	-9.73388
=	-9.7341
▁여기서	-9.73411
▁명의	-9.7344
▁희	-9.73484
었으며	-9.73505
▁관측	-9.73518
)'	-9.73621
▁삶	-9.73642
▁게이	-9.73647
넣	-9.73659
▁녹음	-9.73716
▁중단	-9.73815
력이	-9.73933
47	-9.74006
▁맺	-9.74018
▁정식	-9.74033
▁비교	-9.74064
▁마찬가지로	-9.74084
86	-9.74133
▁안정	-9.74159
오카	-9.74201
▁대구	-9.74412
않	-9.74429
85	-9.74431
▁중간	-9.74497
▁불리는	-9.74523
▁결성	-9.74695
▁훈련	-9.74703
▁앙	-9.74723
▁주연으로	-9.74747
▁뜻	-9.74758
솔	-9.7476
▁방향	-9.74811
94	-9.74815
89	-9.74831
ry	-9.7484
▁달성	-9.74858
융	-9.74883
東	-9.74891
▁먼저	-9.7497
▁아내	-9.75076
▁그린	-9.75155
몰	-9.75175
de	-9.75259
▁꽃	-9.75323
▁a	-9.75341
▁동쪽	-9.75341
ist	-9.75377
체를	-9.75405
▁앤	-9.75414
▁촬영	-9.75456
▁라디오	-9.755
▁실제	-9.75504
ang	-9.7556
▁착	-9.75626
▁안전	-9.75633
▁도착	-9.75707
▁소프트웨어	-9.75777
콜	-9.75838
▁믿	-9.75868
▁참여하였다	-9.75905
로써	-9.75919
무라	-9.7594
잡	-9.75962
▁주인공	-9.75967
특	-9.75984
▁나무	-9.76026
▁하지	-9.7605
▁측정	-9.7608
▁등과	-9.76152
▁체제	-9.7616
프트	-9.76202
▁독일의	-9.76277
▁불교	-9.76302
▁떠나	-9.76348
홀	-9.76357
▁차트	-9.76367
▁Ch	-9.76401
▁관련된	-9.76431
▁벤	-9.76439
▁사용할	-9.76452
법을	-9.76496
97	-9.76543
▁일정	-9.76562
2,	-9.76563
▁시행	-9.7658
▁것이었다	-9.7665
▁놀	-9.76686
빨	-9.76757
▁KBS	-9.76758
02	-9.76814
라스	-9.76819
▁1950	-9.76846
논	-9.7686
▁=	-9.76951
차원	-9.76958
톨	-9.76998
OS	-9.77003
▁장치	-9.77013
ci	-9.77118
46	-9.77137
man	-9.77152
▁뇌	-9.77176
▁가능하다	-9.77192
▁예정	-9.77238
▁공립	-9.77259
▁투표	-9.77292
▁떠	-9.77333
▁화학	-9.77359
한다는	-9.77366
되었는데	-9.77412
▁하루	-9.77536
▁겪	-9.77537
렀	-9.7766
들로	-9.77671
5%	-9.7778
타이	-9.77798
▁수많은	-9.7781
뇌	-9.7781
▁여기	-9.77871
▁여름	-9.77914
학년	-9.77941
▁대회에서	-9.77949
▁씨	-9.78077
▁행성	-9.78119
・	-9.78123
▁중화인민공화국	-9.7821
디아	-9.78274
▁프랑스의	-9.78359
▁있었고	-9.78372
▁구성되어	-9.7845
▁술	-9.78455
킬	-9.78516
▁경우가	-9.78523
부는	-9.78551
공업	-9.7857
▁금지	-9.78577
▁활용	-9.78622
▁해안	-9.78642
러스	-9.78673
BS	-9.78694
▁기존	-9.7872
▁집합	-9.78768
▁기후	-9.78798
▁단어	-9.78822
믹	-9.78857
협회	-9.78871
▁지적	-9.78874
▁대응	-9.78889
ho	-9.78905
하였	-9.78931
▁가능한	-9.78974
sh	-9.79027
▁발행	-9.79041
▁센터	-9.79119
ant	-9.79139
▁회의	-9.79147
▁근거	-9.79195
▁기사	-9.79313
ex	-9.79414
05	-9.79451
vi	-9.7947
▁특성	-9.79506
받았다	-9.79529
▁되	-9.79555
▁제국의	-9.79586
▁경영	-9.79589
▁득점	-9.7965
08	-9.79667
▁서쪽	-9.79667
걸	-9.79708
▁쪽	-9.79717
▁회원	-9.79762
▁클라	-9.79774
▁오브	-9.79786
▁상징	-9.79806
▁연장	-9.79811
▁바다	-9.79818
ou	-9.7982
▁체포	-9.79829
▁특별	-9.7985
he	-9.79944
▁사이에서	-9.79944
▁200	-9.7995
▁윌리엄	-9.79955
道	-9.79963
▁사용자	-9.79969
드로	-9.80045
▁반란	-9.80107
28	-9.80196
잔	-9.80215
▁소개	-9.80217
▁플라	-9.80262
▁디지털	-9.80357
▁삼성	-9.80445
▁투수	-9.80517
▁여행	-9.80539
사키	-9.80555
세이	-9.80598
ment	-9.80607
▁장관	-9.80633
▁조각	-9.80638
▁권력	-9.80639
▁무대	-9.80641
▁컨	-9.80754
화된	-9.80816
▁숨	-9.80834
얻	-9.80909
(18	-9.80913
▁다만	-9.80944
▁지리	-9.80952
▁밖에	-9.80997
▁장소	-9.81004
л	-9.81091
▁끝에	-9.81137
▁없어	-9.8115
▁목적으로	-9.81153
▁업무	-9.81233
(1	-9.81269
▁회장	-9.81298
▁제시	-9.81325
68	-9.8147
500	-9.81549
▁뒤에	-9.81582
▁인기	-9.81591
城	-9.81594
▁갑	-9.81706
하기로	-9.81749
았	-9.81768
세포	-9.81793
만이	-9.8182
▁인천	-9.81866
▁베르	-9.81887
▁형태로	-9.81891
學	-9.81903
▁이주	-9.82009
년대에	-9.82153
제가	-9.82222
▁정권	-9.82296
동에	-9.82328
지게	-9.82337
rp	-9.82368
▁특수	-9.82386
▁오스트레일리아	-9.82442
au	-9.82448
▁장군	-9.82498
▁파견	-9.82529
▁1987	-9.82612
되었지만	-9.82618
▁있지	-9.82624
▁상대로	-9.8267
없이	-9.82693
▁녹	-9.8272
ff	-9.82754
▁규	-9.82825
76	-9.8284
▁능	-9.82874
됨	-9.82896
▁파이	-9.82904
▁아마	-9.82939
▁시험	-9.83054
▁박사	-9.83197
▁유일한	-9.832
56	-9.832
풀	-9.83208
▁지하	-9.83295
기업	-9.83299
▁깨	-9.83549
ー	-9.83582
활	-9.83593
▁등록	-9.83597
▁문서	-9.83597
▁아일랜드	-9.8365
▁동생	-9.83686
▁1986	-9.83724
▁무역	-9.83726
▁지하철	-9.83805
▁부인	-9.83836
▁공작	-9.83848
▁미술	-9.83854
였으며	-9.83893
▁천황	-9.83953
클레	-9.83984
관리	-9.84062
▁웹	-9.84107
▁둔	-9.8412
교회	-9.84143
▁형제	-9.84186
▁있으나	-9.84198
49	-9.84243
되었던	-9.84306
스테	-9.84325
▁홍콩	-9.84342
▁조지	-9.8436
▁바꾸	-9.84361
▁발사	-9.84388
비치	-9.84389
44	-9.84458
첩	-9.84458
바라	-9.8447
▁완성	-9.84499
00	-9.84546
84	-9.84618
낳	-9.84651
▁위해서	-9.84652
der	-9.84692
▁있	-9.84758
no	-9.84805
▁케이	-9.84812
▁다카	-9.84848
▁1984	-9.84849
▁살해	-9.84862
▁떨어진	-9.84894
▁종료	-9.84971
▁멕시코	-9.85021
▁권리	-9.85056
▁전환	-9.85072
ud	-9.85079
▁다양	-9.85108
▁체결	-9.85129
▁신경	-9.85158
▁의하면	-9.8522
숭	-9.85267
▁식물	-9.85343
)"	-9.85347
▁기획	-9.85351
연합	-9.85515
▁협력	-9.85567
▁합류	-9.85619
▁음식	-9.85698
66	-9.85709
털	-9.85714
▁1945	-9.85716
▁사용하여	-9.85717
Z	-9.85729
▁스튜디오	-9.85747
졌고	-9.85757
▁지냈다	-9.85793
▁계통	-9.85795
▁경상남도	-9.85824
▁활	-9.85867
▁보여주	-9.8588
▁즉위	-9.85917
▁내각	-9.85934
▁벽	-9.85963
77	-9.85968
간의	-9.8598
▁보수	-9.86001
▁해당한다	-9.86106
▁확대	-9.86119
▁개통	-9.86151
▁검사	-9.86197
▁파일	-9.86237
해졌다	-9.86328
▁다리	-9.86339
효소	-9.86366
▁경기장	-9.86377
93	-9.86416
ll	-9.86443
직을	-9.86567
▁보도	-9.86626
04	-9.86674
▁성립	-9.8668
받았	-9.86761
87	-9.86763
▁멜	-9.86792
▁최소	-9.86831
ST	-9.86851
57	-9.86984
▁재판	-9.86993
▁여전히	-9.87192
26	-9.87209
ng	-9.873
했기	-9.8737
랭	-9.87398
▁직후	-9.87413
ong	-9.87415
27	-9.87569
▁많	-9.87576
▁보존	-9.87602
바르	-9.8761
▁부모	-9.87665
▁전달	-9.8775
▁덕	-9.87768
天	-9.87787
과학	-9.87834
▁해외	-9.87857
▁우크라이나	-9.87873
콤	-9.87908
▁유로	-9.88
ight	-9.88046
▁다루	-9.88086
▁Z	-9.88091
н	-9.88124
▁유명	-9.88146
▁제거	-9.8816
▁흑	-9.88161
▁필요한	-9.88194
▁수학	-9.88218
▁조선민주주의인민공화국	-9.88221
▁대해서	-9.88226
▁사회적	-9.88253
▁부른다	-9.88265
▁기계	-9.88268
▁60	-9.883
개국	-9.8833
安	-9.88377
▁승격	-9.88468
▁광주	-9.88505
▁몇몇	-9.88508
▁공급	-9.88559
▁당선	-9.88592
59	-9.88602
の	-9.88638
▁낮은	-9.8864
▁팀의	-9.88646
▁판단	-9.88685
▁편성	-9.88713
▁측면	-9.88747
▁유리	-9.88759
▁관할	-9.88777
롬	-9.88779
ers	-9.88829
▁1985	-9.88892
생활	-9.88951
겠다	-9.88967
▁얼마	-9.88996
▁근무	-9.89014
▁조성	-9.89025
▁보다	-9.89116
▁신라	-9.89133
▁연극	-9.89255
▁징	-9.89256
54	-9.89273
58	-9.89295
▁블루	-9.89357
▁정부는	-9.89365
치고	-9.89392
南	-9.89392
29	-9.89404
07	-9.89424
▁식민지	-9.89437
▁프라	-9.89475
곽	-9.8948
▁코드	-9.89532
▁이유	-9.89537
픽	-9.8956
▁합병	-9.89592
ber	-9.89641
氏	-9.89664
였고	-9.89665
돼	-9.89668
▁이렇게	-9.89683
▁항상	-9.89709
▁정착	-9.89809
▁정상	-9.89838
▁못한	-9.89942
▁가르	-9.89987
▁만에	-9.90004
철도	-9.90049
▁이루어진	-9.90113
▁이집트	-9.90168
공사	-9.90203
▁국경	-9.90246
활동	-9.90285
▁사용되는	-9.90293
▁올리	-9.90323
▁신문	-9.90381
답	-9.90408
▁값	-9.90432
▁종종	-9.90465
▁타이틀	-9.90527
▁계열	-9.90566
▁읽	-9.90584
▁대사	-9.90585
고속도로	-9.90591
▁만들었다	-9.90601
78	-9.90607
▁지역을	-9.90627
43	-9.90673
▁취임	-9.90705
▁기원	-9.90719
▁만들어진	-9.90757
아시아	-9.90771
▁계산	-9.90796
▁국왕	-9.9085
67	-9.90924
리어	-9.90927
ec	-9.90975
▁떨어	-9.91036
▁팬	-9.91152
▁새로	-9.91158
°	-9.91177
▁왔다	-9.91242
▁강한	-9.91263
▁다니	-9.91303
▁대표적인	-9.91308
▁카를	-9.91318
82	-9.91322
▁때문	-9.91329
▁너무	-9.91331
일러	-9.91345
▁종합	-9.91358
시키고	-9.91365
▁대륙	-9.91382
럭	-9.91392
▁폰	-9.91431
▁죄	-9.91443
▁뉴스	-9.91497
금을	-9.91501
으면	-9.91562
41	-9.91588
▁교체	-9.91646
▁트리	-9.91662
그룹	-9.91673
▁포르투갈	-9.91715
83	-9.91732
▁앞두고	-9.91788
험	-9.91794
▁범죄	-9.91834
전쟁	-9.91876
▁경상북도	-9.91887
▁목표	-9.9189
▁혈	-9.91891
▁국회	-9.91996
켓	-9.9204
쇠	-9.92085
▁관계를	-9.92111
с	-9.92112
▁전략	-9.92207
함을	-9.92336
▁마사	-9.92453
자들	-9.92492
▁만드는	-9.92556
▁작성	-9.92634
公	-9.9268
32	-9.92688
91	-9.92731
▁충돌	-9.92777
쿨	-9.92811
획	-9.92849
▁의견	-9.92854
▁인근	-9.92876
브리	-9.92897
차전	-9.92916
川	-9.92973
▁to	-9.92975
▁사람은	-9.93031
▁폐지	-9.93042
▁계승	-9.9307
경제	-9.93088
▁상업	-9.93097
45	-9.93114
▁지식	-9.93117
었는데	-9.93128
▁내에서	-9.93129
로운	-9.93149
▁이슬람	-9.93166
▁세상	-9.93184
부르크	-9.93258
▁자동	-9.93384
▁영상	-9.93416
法	-9.93473
입니다	-9.93499
▁투자	-9.93528
마르	-9.93583
▁시기에	-9.93587
79	-9.93612
▁알려	-9.93638
事	-9.93653
▁1982	-9.93655
▁사례	-9.93735
▁월드	-9.93738
per	-9.93743
ess	-9.93823
▁못하고	-9.93889
▁본래	-9.93901
▁집중	-9.9394
▁허용	-9.94036
▁결승전	-9.94054
▁나카	-9.94084
쇄	-9.94106
▁동료	-9.94131
▁것도	-9.94151
▁위치해	-9.94179
▁개선	-9.94238
ity	-9.9428
ip	-9.94293
▁공사	-9.94343
▁제임스	-9.94395
▁적이	-9.94441
42	-9.94519
▁아니다	-9.94532
▁가까운	-9.94565
▁쌓	-9.94567
▁지상	-9.94586
▁굴	-9.9462
69	-9.94697
적이고	-9.94711
▁해체	-9.94748
놀	-9.94789
▁오른쪽	-9.94843
sp	-9.94903
▁밑	-9.94972
▁경우에는	-9.94987
▁때는	-9.95002
▁네트워크	-9.95029
핵	-9.95048
BC	-9.95068
▁시작하였다	-9.95072
▁곳에	-9.95077
사단	-9.95097
▁몽골	-9.95153
▁주목	-9.95169
▁제목	-9.95173
▁n	-9.95277
51	-9.95284
一	-9.95302
▁일반적인	-9.95308
》(:	-9.95349
▁유사	-9.95396
▁경기를	-9.95438
▁v	-9.95504
▁건강	-9.95745
▁단위	-9.95781
▁문제를	-9.95785
▁시대에	-9.95833
▁일대	-9.95841
71	-9.95852
▁간주	-9.95855
53	-9.95863
우드	-9.95898
▁1983	-9.95958
63	-9.95982
▁올랐다	-9.95983
▁베이	-9.96004
▁약간	-9.9605
감을	-9.96075
▁오후	-9.96159
▁종목	-9.96216
▁인민	-9.96263
은행	-9.96274
꽃	-9.96277
▁농업	-9.96285
son	-9.96288
▁장애	-9.96338
프라	-9.96358
▁않았	-9.96363
▁명예	-9.96371
IC	-9.96408
▁브리	-9.96409
네스	-9.96493
▁제기	-9.96541
▁인수	-9.96608
▁일을	-9.96691
▁잡지	-9.96694
74	-9.96741
06	-9.96745
문학	-9.96782
넬	-9.96804
▁II	-9.96814
▁안에	-9.96817
혁	-9.96848
rt	-9.96921
▁감염	-9.97035
▁느	-9.97052
▁인한	-9.97107
ian	-9.97173
▁2023	-9.97186
72	-9.97224
▁증명	-9.97237
캐	-9.97299
박쥐	-9.97386
▁물론	-9.97442
▁공부	-9.9754
▁비밀	-9.97545
타카	-9.97569
▁다음은	-9.97572
平	-9.97574
세기에	-9.97578
81	-9.97649
▁양자	-9.97681
▁발표했다	-9.97697
티브	-9.97701
▁사후	-9.97701
▁베를린	-9.97719
되	-9.97757
▁유니	-9.9778
▁협회	-9.97819
▁w	-9.97911
ni	-9.97987
인들이	-9.97997
한국	-9.98037
▁미디어	-9.98181
▁실행	-9.98225
프레	-9.9826
▁오사카	-9.98299
▁De	-9.984
▁이미지	-9.98425
田	-9.98542
▁강조	-9.986
▁뛰	-9.98602
▁생물	-9.98641
드라	-9.98697
▁윈도우	-9.98794
▁표면	-9.98903
▁제정	-9.98909
iv	-9.98932
▁증거	-9.98977
▁전시	-9.99006
▁관찰	-9.99048
▁역할	-9.99053
~)	-9.99074
▁옮겨	-9.99094
▁입학	-9.99119
업체	-9.99177
▁간의	-9.99184
▁아키	-9.99253
61	-9.99287
월까지	-9.99331
드러	-9.99399
к	-9.99414
т	-9.99512
밖에	-9.99527
휴	-9.99598
들도	-9.99617
▁개정	-9.99665
▁블랙	-9.99675
▁라인	-9.99873
▁델	-9.99897
▁문제가	-9.99924
▁후기	-9.99928
으므로	-9.99945
▁소리	-10.0001
습니다	-10.0002
조사	-10.0012
▁살아	-10.0022
▁때에는	-10.0022
한다고	-10.0023
▁자격	-10.0026
▁좋	-10.0032
▁가입	-10.004
▁사실을	-10.0044
톱	-10.0048
삭	-10.0051
▁선거구	-10.0051
▁민간	-10.0052
▁남편	-10.0054
축구	-10.0054
▁위협	-10.0059
군과	-10.0064
토리	-10.0067
ub	-10.007
▁제작에	-10.0076
▁중국의	-10.0077
▁병원	-10.008
▁전반	-10.0082
▁채널	-10.0083
체육	-10.0085
륙	-10.0085
해진	-10.0089
▁재정	-10.0091
하려는	-10.0092
▁인사	-10.0094
▁여겨	-10.0096
62	-10.0099
_4	-10.01
▁미래	-10.01
73	-10.0101
제도	-10.0103
▁의식	-10.0104
보다는	-10.0105
▁페르	-10.0109
▁더불어	-10.0113
▁바람	-10.0115
세계	-10.0117
티아	-10.0118
▁생명	-10.0123
▁플레이	-10.0128
▁유엔	-10.0131
시킨	-10.0133
▁불린다	-10.0138
▁이래	-10.0141
▁환자	-10.0141
위원장	-10.0142
▁남북	-10.0144
얀	-10.0156
▁바탕으로	-10.0156
▁원정	-10.0158
▁건너	-10.016
▁수정	-10.017
▁피해	-10.017
▁단백질	-10.0185
▁옆	-10.0185
▁없었	-10.0191
괄	-10.0192
컨	-10.0193
어져	-10.0196
리스트	-10.0197
뤼	-10.0202
▁그것은	-10.0202
▁위원회	-10.0203
▁줄거리	-10.0204
▁저항	-10.021
▁뒷	-10.0213
▁1979	-10.0215
각형	-10.0217
라도	-10.022
be	-10.0221
오스	-10.0222
▁태풍	-10.0229
됐	-10.023
첼	-10.0232
▁해상	-10.0235
our	-10.0236
▁붕괴	-10.0242
▁가격	-10.0248
▁역대	-10.0254
▁모리	-10.0259
산업	-10.026
▁젊은	-10.0263
ion	-10.0263
▁연대	-10.0265
▁얼굴	-10.0265
▁셀	-10.0265
po	-10.0266
묵	-10.0267
▁사람을	-10.0269
량이	-10.0273
었던	-10.0274
▁냉	-10.0282
▁이용하여	-10.0287
▁외에도	-10.0289
버리	-10.0291
▁전역	-10.0293
▁전라남도	-10.0306
▁이스라엘	-10.0316
우리	-10.0319
con	-10.032
▁뿐만	-10.0322
뜨	-10.0324
▁각종	-10.0325
▁소수	-10.0331
타르	-10.0333
▁한국의	-10.0343
▁류	-10.0345
▁전투에서	-10.0355
▁사망하였다	-10.0357
죽	-10.0363
시오	-10.0363
룩	-10.0365
▁최고의	-10.0365
▁맹	-10.0366
▁거두	-10.0368
▁이번	-10.0373
▁?	-10.0377
▁제외한	-10.0378
▁사람들은	-10.0382
느	-10.0388
이던	-10.039
▁있었지만	-10.0393
ect	-10.0394
;&	-10.0396
▁주었다	-10.041
▁MBC	-10.0412
▁펜	-10.0412
nd	-10.0414
SS	-10.0415
▁채택	-10.0417
▁1981	-10.0421
▁학생들	-10.0424
▁원소	-10.0432
▁통신	-10.0436
▁1972	-10.0437
▁승인	-10.044
▁메이	-10.0454
▁통제	-10.0461
▁도중	-10.0464
럴	-10.0465
▁명단	-10.0471
▁넓	-10.0477
웰	-10.0478
qu	-10.0488
회사	-10.0491
▁연재	-10.0493
최	-10.0495
▁사회주의	-10.0506
▁스타일	-10.0511
▁g	-10.0512
▁이끌	-10.0513
▁마련	-10.0516
▁카드	-10.0516
da	-10.0518
▁양식	-10.0525
31	-10.0528
부대	-10.0535
▁만약	-10.0536
▁사무	-10.0536
▁질량	-10.0539
AT	-10.0544
▁척	-10.0547
▁말을	-10.0548
꼬	-10.0555
▁무렵	-10.0561
인들은	-10.0563
ass	-10.0563
▁병력	-10.0564
▁계약을	-10.0566
▁침공	-10.0566
▁이하	-10.0568
one	-10.0569
▁그래서	-10.057
gr	-10.057
사건	-10.0571
▁웨	-10.0588
엠	-10.059
▁신호	-10.0594
▁자신을	-10.0596
사령관	-10.0597
끼	-10.0599
▁상호	-10.0607
▁히로	-10.061
▁궤도	-10.0611
뮤	-10.0611
ae	-10.0613
▁기능을	-10.0621
▁후지	-10.0625
▁코치	-10.063
겼	-10.0634
if	-10.0635
▁뜻이	-10.0645
▁방식으로	-10.0647
▁기억	-10.0647
▁강력한	-10.0654
덤	-10.0655
書	-10.0656
ack	-10.0664
▁핵심	-10.0668
▁강제	-10.0669
▁임무	-10.0671
노스	-10.0675
엇	-10.0678
▁이루어져	-10.0678
tion	-10.0683
do	-10.0684
▁뛰어	-10.0686
▁논문	-10.0688
국가	-10.0691
시장	-10.0695
▁원작	-10.0695
요시	-10.0696
▁알고	-10.0697
▁공군	-10.0698
▁위기	-10.0702
▁빅	-10.0705
52	-10.0705
ke	-10.0706
▁학문	-10.0711
▁끌	-10.0712
-0	-10.0716
ast	-10.0719
▁통하여	-10.072
하나	-10.0722
라이트	-10.0722
▁같	-10.0726
▁성인	-10.0731
▁동일	-10.0735
랙	-10.0741
kg	-10.0744
▁시위	-10.0747
▁비용	-10.0747
▁총선	-10.0751
▁늘	-10.0759
짝	-10.0765
▁마리아	-10.0769
곳	-10.0772
ا	-10.0773
웠	-10.0776
ore	-10.0776
▁1973	-10.0778
▁쉽게	-10.0779
캘	-10.079
寺	-10.0794
▁태어난	-10.0795
▁확보	-10.0795
▁지내	-10.0796
▁주장했다	-10.0799
▁알아	-10.0799
▁위치하고	-10.08
뼈	-10.0801
mo	-10.0803
▁공장	-10.0806
음악	-10.0806
▁끼	-10.0812
ak	-10.0815
▁부근	-10.0818
뷰	-10.0823
라고도	-10.0824
클리	-10.0831
하려고	-10.0833
▁미군	-10.0836
▁시작되었다	-10.0836
▁공공	-10.0837
▁가톨릭	-10.0838
였	-10.084
▁기존의	-10.0859
▁순위	-10.0867
int	-10.087
▁포지션은	-10.0871
▁루이	-10.0872
-19	-10.0879
▁출신의	-10.088
찌	-10.0882
▁전개	-10.0884
문화재	-10.0889
유럽	-10.0891
놓	-10.0893
미터	-10.0895
▁늘어	-10.0897
여자	-10.0901
슬라	-10.0901
▁칠	-10.091
og	-10.0914
▁보면	-10.0914
쳤	-10.0916
▁재직	-10.0917
▁참조	-10.092
▁고전	-10.0921
▁범위	-10.0922
▁일본에서	-10.0927
▁회복	-10.0928
▁시대의	-10.0931
▁단순	-10.0933
▁그런	-10.0934
것	-10.0935
▁연맹	-10.0941
▁출발	-10.0942
▁군인	-10.0943
▁전차	-10.0945
▁출연하였고	-10.0947
▁32	-10.0947
이므로	-10.095
▁헝가리	-10.0957
▁겨울	-10.0958
▁점차	-10.0959
잉	-10.0963
▁관심을	-10.0969
▁나온	-10.0972
▁작사	-10.0974
필드	-10.0978
ord	-10.0981
리우스	-10.0983
휘	-10.0986
正	-10.0987
테르	-10.099
▁않을	-10.0992
▁수입	-10.1003
▁꿈	-10.1004
▁정보를	-10.1006
▁지점	-10.1008
케이	-10.1008
▁다섯	-10.1014
개발	-10.1014
터미널	-10.1015
▁현실	-10.102
▁진화	-10.1024
공화국	-10.1025
▁예수	-10.1027
ace	-10.1038
▁1974	-10.1039
▁미사일	-10.1043
연구	-10.1043
com	-10.1053
▁전사	-10.1057
▁탄생	-10.1058
▁자신들	-10.1064
렐	-10.1068
대표	-10.1072
▁1978	-10.1081
앵	-10.109
▁임시	-10.1091
▁대규모	-10.1091
av	-10.1094
▁경향	-10.11
▁밝혀	-10.11
▁탑재	-10.1104
▁동계	-10.1107
▁초반	-10.1111
▁성질	-10.1114
▁극장	-10.1114
괴	-10.1119
닛	-10.1127
버그	-10.1132
▁정부의	-10.1135
밥	-10.1136
▁1976	-10.1139
▁생활을	-10.1145
-20	-10.1147
▁구축	-10.1154
ain	-10.1159
▁구조를	-10.1163
▁아라	-10.1164
高	-10.1167
▁스테	-10.1175
▁신설	-10.1177
▁경주	-10.1188
그래	-10.119
宗	-10.1195
日	-10.1196
▁온도	-10.1201
▁차지했다	-10.1214
▁장기	-10.1227
▁무장	-10.1228
▁습	-10.1242
▁1975	-10.1243
▁광고	-10.1244
▁보이는	-10.1247
베르크	-10.1258
▁필리핀	-10.1262
▁알리	-10.1263
▁기록을	-10.1266
당했다	-10.127
▁신학	-10.1277
▁힘을	-10.1277
프리	-10.1278
졌으며	-10.128
민주	-10.1281
연대	-10.1285
▁유도	-10.1289
▁핀란드	-10.1292
▁어떻게	-10.1304
▁비율	-10.1306
▁서식	-10.1309
졸	-10.131
AR	-10.1312
600	-10.1316
▁1968	-10.1323
▁외국	-10.1324
up	-10.1333
▁Al	-10.1333
▁충청남도	-10.1339
▁남아있	-10.134
▁승리를	-10.1344
▁구성된	-10.1344
▁감정	-10.1347
▁수립	-10.1347
義	-10.1362
軍	-10.1363
▁윌	-10.1364
▁자리를	-10.1365
ER	-10.1373
잇	-10.1374
▁번호	-10.1377
▁70	-10.1381
베리	-10.1393
렴	-10.1395
셜	-10.1397
투스	-10.1399
▁노동자	-10.14
장관	-10.14
륜	-10.14
▁An	-10.1401
上	-10.1404
▁500	-10.1407
ob	-10.1408
이라고도	-10.1411
▁소장	-10.1412
기술	-10.1413
▁사실상	-10.1413
IS	-10.1417
라며	-10.1418
▁주민	-10.1423
▁덴마크	-10.1424
▁아시안	-10.1425
용으로	-10.1425
▁유형	-10.1425
이었고	-10.1427
▁l	-10.1433
age	-10.1436
튜	-10.1439
▁뒤를	-10.145
▁대형	-10.1469
▁컴	-10.1483
▁동일한	-10.1485
▁공유	-10.1487
▁맨	-10.1493
피아	-10.1495
▁도움을	-10.1501
▁예상	-10.1502
本	-10.1503
시킨다	-10.1505
▁Me	-10.1513
▁훨씬	-10.1514
▁연혁	-10.1516
브라	-10.1519
長	-10.1525
▁나오는	-10.1529
▁장면	-10.153
▁쓰인다	-10.1532
▁받는	-10.1538
▁사용되었다	-10.1538
▁1971	-10.1542
지원	-10.1544
▁봄	-10.1544
▁선수들	-10.1547
▁미치	-10.1548
시킬	-10.1549
▁은하	-10.1549
▁데이	-10.1555
▁저장	-10.1562
▁폭발	-10.1563
▁여기에	-10.1565
▁프로듀서	-10.1566
▁근대	-10.1568
元	-10.1575
▁등에서	-10.1577
항공	-10.1579
욱	-10.1588
▁크리스	-10.1589
▁사망했다	-10.1592
값	-10.1599
녕	-10.1599
▁나서	-10.16
▁장비	-10.1601
유키	-10.1614
▁속에서	-10.1616
▁은행	-10.1627
드리	-10.1629
되었을	-10.1632
▁떨어져	-10.1633
▁공격을	-10.1635
ca	-10.1636
▁영향력	-10.164
▁그해	-10.1643
▁도시로	-10.1643
▁만족	-10.1643
▁몽	-10.1649
▁목록은	-10.1649
▁솔로	-10.1649
부분	-10.1655
춤	-10.1658
▁신화	-10.1661
▁1969	-10.1663
▁중심지	-10.1665
틱	-10.1677
▁이름의	-10.1696
▁원칙	-10.1699
탱	-10.17
▁에어	-10.1701
▁온라인	-10.1712
▁80	-10.1712
▁통계	-10.1712
럽	-10.1713
시설	-10.1714
▁토지	-10.172
▁탑	-10.172
800	-10.1722
▁이끄는	-10.1722
▁브라	-10.1726
선수	-10.1729
▁등장하는	-10.1734
하겠다	-10.174
▁태평양	-10.1741
타운	-10.1742
모리	-10.1753
▁역사적	-10.1754
룬	-10.1756
eg	-10.1759
▁해방	-10.1771
▁헤이	-10.1776
자들의	-10.1781
께	-10.1788
▁투어	-10.179
▁등급	-10.1809
▁뛰어난	-10.1811
▁숲	-10.1815
▁귀족	-10.1817
明	-10.1821
▁대상으로	-10.1822
▁브랜드	-10.1822
▁뮤직	-10.1825
▁매년	-10.1826
▁아카데미	-10.1828
ン	-10.1834
▁관광	-10.1834
▁기반으로	-10.1841
▁본인	-10.1842
▁과정을	-10.1848
째	-10.1851
▁사용한	-10.1855
▁중반	-10.186
▁장착	-10.1867
▁잘못	-10.1874
받아	-10.1875
흔	-10.1877
駅	-10.1879
▁대수	-10.1879
빛	-10.1882
▁조선시대	-10.1883
▁달라	-10.1885
▁불러	-10.1886
ide	-10.1887
行	-10.1894
▁고용	-10.1894
▁좀	-10.1894
▁듀	-10.1895
▁귀국	-10.1908
▁참석	-10.1914
램	-10.1919
▁1920	-10.1921
▁플랫폼	-10.1922
▁짧은	-10.1926
으면서	-10.1927
▁양성	-10.1932
▁1930	-10.1932
iz	-10.1934
▁기대	-10.194
▁잠시	-10.194
교통	-10.1941
▁LG	-10.1942
▁경우도	-10.1943
▁가능성이	-10.1947
▁단일	-10.1949
▁개봉	-10.195
겔	-10.1954
▁이란	-10.1955
▁군주	-10.1955
▁끝나	-10.1959
▁1963	-10.1964
▁장식	-10.1964
▁이것이	-10.1966
▁향상	-10.1975
▁통한	-10.1979
▁태어나	-10.1984
윈	-10.1995
▁앨	-10.1996
▁짓	-10.1997
덩	-10.2008
쿠스	-10.2009
공무원	-10.2011
▁역사상	-10.2011
▁편입	-10.2013
되었	-10.202
→	-10.2024
end	-10.2033
▁인하여	-10.2035
▁불가능	-10.2038
▁고정	-10.2046
▁글을	-10.2047
▁1977	-10.2054
흡	-10.2058
▁사람의	-10.2058
▁+	-10.206
▁인간의	-10.2064
▁곤	-10.2064
▁이루어지	-10.207
디스	-10.2082
▁의료	-10.2084
▁세우	-10.2089
▁발생한	-10.2089
▁Ar	-10.2091
▁조금	-10.2098
▁채워	-10.2101
감독	-10.2102
▁비교적	-10.2111
▁보여	-10.2117
▁마드리드	-10.2121
▁개편	-10.2126
▁에스	-10.2132
▁대표팀	-10.2134
▁창설	-10.2135
▁행정구역	-10.2136
동물	-10.214
▁지키	-10.2145
▁재산	-10.2146
▁튀	-10.2147
IA	-10.2153
맹	-10.2153
켄	-10.2154
▁독자	-10.2163
▁전혀	-10.2166
▁트랙	-10.2166
▁윈	-10.2168
▁1940	-10.2177
▁각본	-10.2178
▁1948	-10.2181
▁메이저	-10.2182
▁에피소드	-10.2184
▁로버트	-10.2185
▁후손	-10.2186
▁대립	-10.2189
▁항성	-10.2191
륨	-10.2194
▁창립	-10.2194
▁마치	-10.22
▁CD	-10.2201
▁절대	-10.2202
쾌	-10.2206
ai	-10.2209
▁Ro	-10.221
▁묻	-10.2215
퀴	-10.2217
▁설치되었던	-10.222
국민	-10.2222
▁1964	-10.2223
▁인접	-10.2224
행위	-10.2225
-3	-10.2229
▁합의	-10.2231
예술	-10.2233
▁수출	-10.2233
▁임명되었다	-10.224
▁갖춘	-10.224
▁전설	-10.2244
▁불과	-10.2246
▁직원	-10.2247
海	-10.2248
▁저지	-10.2248
生	-10.2249
▁솔	-10.2251
려고	-10.2252
▁죽은	-10.2257
웨	-10.2267
▁민주당	-10.2269
ep	-10.227
룸	-10.2271
▁덮	-10.2272
▁반복	-10.2275
꺼	-10.2276
院	-10.2284
▁암살	-10.2287
lu	-10.2287
▁확정	-10.2294
▁시각	-10.2295
▁포함되어	-10.2299
▁꾸	-10.2299
보험	-10.2305
~1	-10.2305
▁외에	-10.2308
▁가리키는	-10.2309
▁전력	-10.231
ov	-10.2314
▁관심	-10.2315
▁모스크바	-10.2316
따	-10.2318
▁돌아가	-10.2322
▁우선	-10.2323
저우	-10.2326
▁바뀌	-10.2337
▁청소년	-10.2337
▁시내	-10.2341
▁코미디	-10.2345
그라	-10.2348
더스	-10.2349
▁운전	-10.235
ah	-10.235
이었으나	-10.235
AP	-10.2353
▁권한	-10.2353
▁분자	-10.236
카르	-10.236
▁니시	-10.2361
▁방출	-10.2363
정책	-10.2366
AN	-10.2368
짐	-10.237
▁있었으며	-10.2374
▁조합	-10.2374
번호	-10.2377
▁육상	-10.2385
지방	-10.2388
▁명명	-10.2396
▁유전자	-10.2396
스톤	-10.2397
西	-10.2399
▁세운	-10.2401
▁털	-10.2404
▁형태의	-10.2405
▁선수단	-10.2407
(15	-10.2412
▁갈등	-10.2414
▁아르헨티나	-10.2414
먹	-10.2416
보살	-10.2417
기간	-10.2417
▁중화민국	-10.2422
IN	-10.2422
▁세웠다	-10.2425
▁홈런	-10.2426
bo	-10.243
tic	-10.2431
▁청나라	-10.2432
▁추정된다	-10.2438
▁보유	-10.2444
▁저서	-10.2445
▁판결	-10.2447
▁신체	-10.2449
CA	-10.2451
시티	-10.246
▁생존	-10.2462
ton	-10.2462
▁말이다	-10.2463
납	-10.2475
▁조치	-10.2478
▁현역	-10.2479
~20	-10.2479
oc	-10.248
▁자원	-10.2482
▁오토	-10.2485
_5	-10.2487
▁전용	-10.2489
▁왼쪽	-10.2489
궤	-10.2493
ens	-10.2494
▁박물관	-10.2495
▁셰	-10.2498
無	-10.2502
▁옷	-10.2502
덜	-10.2502
▁카르	-10.2502
▁도달	-10.2507
▁위성	-10.251
原	-10.2512
▁인기를	-10.2512
하고자	-10.2519
▁의해서	-10.2524
▁설치되어	-10.2534
▁차이가	-10.2534
▁오랜	-10.2536
▁모르	-10.2537
▁일제	-10.2538
▁평양	-10.2541
▁하늘	-10.2544
AC	-10.2545
▁항공기	-10.2545
▁이익	-10.2556
▁Be	-10.2556
成	-10.2557
▁시티	-10.2563
사령부	-10.2565
라면	-10.257
▁베이징	-10.2571
▁35	-10.2573
▁앞서	-10.2575
템	-10.2578
▁경기에	-10.2578
▁합성	-10.2579
▁선거에서	-10.2585
ev	-10.2586
▁중세	-10.2589
▁유대인	-10.2589
낼	-10.2593
▁엘리	-10.2595
▁브루	-10.2596
냈	-10.2599
▁의도	-10.2599
府	-10.2602
▁비난	-10.2603
에게서	-10.2604
地	-10.261
▁반도	-10.2616
▁듯	-10.2617
둘	-10.2618
▁영화배우	-10.2624
▁고향	-10.2626
▁계급	-10.2626
▁지시	-10.2628
▁지역은	-10.2628
▁만주	-10.2629
대학원	-10.2629
SA	-10.263
게임	-10.2634
▁흔히	-10.2635
▁플레이어	-10.2635
밴	-10.2637
▁연관	-10.2639
▁금융	-10.264
res	-10.2655
▁정복	-10.2656
▁아무	-10.2657
▁가리	-10.2658
▁1962	-10.266
▁오픈	-10.2663
α	-10.2664
▁기구	-10.2666
멀	-10.2668
현재	-10.2669
받은	-10.2672
▁이용해	-10.2676
딜	-10.2678
▁회전	-10.2678
▁제외	-10.2681
va	-10.2682
끄	-10.2683
石	-10.2683
{	-10.2686
▁전후	-10.2688
코프	-10.2691
공학	-10.2691
▁팀은	-10.2694
▁살고	-10.2697
▁세계에서	-10.2701
▁1967	-10.2702
쉽	-10.2702
또	-10.2702
▁남쪽으로	-10.2702
《	-10.2703
▁자세	-10.2705
St	-10.2709
▁없고	-10.2709
▁소녀	-10.271
무늬	-10.2713
▁집안	-10.2715
중앙	-10.2716
▁공포	-10.2717
▁호수	-10.2717
▁for	-10.272
100	-10.2722
▁노예	-10.2727
▁일으키	-10.2728
▁속에	-10.2729
▁하자	-10.2733
(16	-10.2733
오르	-10.2739
▁시간이	-10.2749
▁설립된	-10.2749
EC	-10.2752
▁찍	-10.2762
▁맡고	-10.2763
ction	-10.2765
민족	-10.2769
정치	-10.277
▁나뉘	-10.2772
옮	-10.2773
▁교사	-10.2776
▁답	-10.2776
팩	-10.278
▁가능성	-10.2781
▁추측	-10.2781
▁흡수	-10.2787
▁교토	-10.279
만큼	-10.2801
▁어린이	-10.281
▁논쟁	-10.2815
▁타고	-10.2818
▁한다고	-10.282
▁의무	-10.2831
▁얻었다	-10.2837
▁띠	-10.2838
▁라이브	-10.2841
▁대기	-10.2844
▁붉은	-10.2845
▁벌어	-10.2851
▁구별	-10.2859
▁촌이다	-10.2861
▁300	-10.2862
▁고등	-10.2867
▁공주	-10.2868
▁있었으나	-10.2868
ve	-10.2879
본부	-10.2888
▁고구려	-10.2889
▁스피	-10.2892
▁켄	-10.2892
▁끊	-10.2893
▁준우승	-10.2894
▁1946	-10.2898
IP	-10.2917
▁공식적으로	-10.2917
▁보조	-10.2918
▁이외에	-10.2918
~19	-10.2922
▁유전	-10.2926
차례	-10.2934
▁수여	-10.2934
민주당	-10.2939
▁다르다	-10.2941
1%	-10.2942
▁You	-10.2943
▁힐	-10.2948
▁논의	-10.295
레이션	-10.2953
2%	-10.2959
太	-10.2959
끈	-10.2959
▁거대한	-10.2963
▁잎	-10.2966
▁작곡가	-10.2966
▁관점	-10.2967
혁명	-10.2972
▁있었는데	-10.2974
▁1965	-10.2977
新	-10.2979
▁그에게	-10.298
▁내용을	-10.2982
캄	-10.2984
▁얻어	-10.2985
▁투입	-10.2986
▁공산당	-10.2987
▁카운티	-10.2994
▁거절	-10.3004
▁태국	-10.3009
▁제출	-10.3009
▁사이트	-10.3011
▁h	-10.3015
▁1966	-10.3016
뱀	-10.302
▁북쪽으로	-10.3032
▁넓은	-10.3039
▁뜻한다	-10.304
ern	-10.3044
▁오래된	-10.3047
▁인터뷰	-10.3052
▁확실	-10.3052
▁크레	-10.3054
▁유명하다	-10.3056
▁워싱턴	-10.306
▁엔터테인먼트	-10.306
▁주교	-10.3061
▁레드	-10.3066
▁아랍	-10.3067
테스	-10.3078
았고	-10.3079
hi	-10.3089
키아	-10.3091
▁현재까지	-10.3092
▁일종이다	-10.31
▁1949	-10.3101
랩	-10.3108
▁바이러스	-10.3109
셰	-10.3109
▁보낸	-10.3109
▁트레	-10.311
▁따르	-10.3114
▁Th	-10.3117
▁마이클	-10.312
%	-10.312
▁그것을	-10.3121
▁넘는	-10.3123
▁청년	-10.3124
▁벨기에	-10.3125
BA	-10.3126
▁해당하는	-10.3139
▁수단	-10.314
뿐만	-10.314
▁요새	-10.3146
▁겐	-10.3149
▁He	-10.315
▁헨리	-10.3157
학원	-10.316
▁음력	-10.3161
웠다	-10.3162
▁숫자	-10.3165
▁끝난	-10.3166
▁보급	-10.3167
▁덴	-10.3172
▁아우	-10.3174
▁위치한다	-10.3174
▁곳에서	-10.3176
▁건조	-10.3177
3%	-10.3182
▁Mar	-10.3182
▁오전	-10.3183
▁1961	-10.3184
▁결과를	-10.3186
▁대항	-10.3187
▁아메리카	-10.3189
▁시점	-10.3189
▁호텔	-10.3189
▁영업	-10.3192
ence	-10.3193
▁정부가	-10.3198
▁지대	-10.3201
빗	-10.3202
北	-10.321
▁Mo	-10.321
롯	-10.321
카드	-10.3213
▁순서	-10.3215
▁상품	-10.3217
구역	-10.3219
▁개봉한	-10.3219
che	-10.3225
▁아주	-10.3225
스러운	-10.3226
▁알게	-10.3228
家	-10.3232
▁꼬리	-10.3232
▁잇는	-10.3233
티스	-10.3233
á	-10.3234
▁현지	-10.3238
▁출마	-10.3241
캠퍼스	-10.3241
▁코로나	-10.3251
▁고문	-10.3256
▁시즌에	-10.3256
▁본관은	-10.3258
▁점에서	-10.3261
▁보였다	-10.3261
▁사단	-10.3263
▁발견된다	-10.3263
글리	-10.3265
ik	-10.3265
▁중요	-10.3265
MS	-10.3265
시키기	-10.3266
마리	-10.3267
ame	-10.3269
▁보냈다	-10.3269
▁처음에는	-10.327
통신	-10.3274
▁질병	-10.3276
▁왕위	-10.3279
멜	-10.3279
▁요한	-10.3282
▁정치인	-10.3287
CO	-10.3287
▁상당히	-10.3287
천군	-10.3288
눈	-10.3289
rea	-10.329
▁한국에서	-10.3293
▁나치	-10.3295
섰	-10.3299
▁스코틀랜드	-10.3299
▁오히려	-10.3299
▁크라	-10.33
▁제공한다	-10.3305
▁것처럼	-10.331
▁법원	-10.331
▁중부	-10.3311
▁규칙	-10.3311
神	-10.3311
。	-10.3312
▁서쪽으로	-10.3313
▁대비	-10.3316
ib	-10.3321
▁한때	-10.3322
▁플레이오프	-10.3326
▁의존	-10.3328
▁선생	-10.3331
▁변형	-10.3336
▁기자	-10.3339
▁속한다	-10.3345
▁생겨	-10.3346
▁전라북도	-10.3348
▁마법	-10.335
▁응용	-10.3351
▁만큼	-10.3353
▁받지	-10.3357
▁낭	-10.3361
▁주민들	-10.3362
▁신앙	-10.3372
▁Br	-10.3385
▁미야	-10.3387
▁이끌고	-10.3391
▁금속	-10.3393
▁공원	-10.3394
지면서	-10.3397
▁자녀	-10.3402
캔	-10.3403
ark	-10.3404
▁하위	-10.3417
ty	-10.3431
▁멸망	-10.3433
붕	-10.3435
▁노르웨이	-10.3439
ran	-10.3439
▁경제적	-10.3445
이었으며	-10.3445
▁약속	-10.3448
룰	-10.3449
▁Se	-10.345
▁Pro	-10.345
연맹	-10.3451
이닝	-10.3456
▁부활	-10.3457
部	-10.3457
마루	-10.346
▁직업	-10.3463
▁이민	-10.3479
하였지만	-10.3479
▁견해	-10.3482
▁전주	-10.3482
하다고	-10.3483
▁인종	-10.3489
▁물리학	-10.3493
인들의	-10.3494
▁필요하다	-10.3494
▁물리	-10.3495
▁지닌	-10.3497
더라도	-10.3502
▁로드	-10.3506
▁브레	-10.3507
ft	-10.3508
▁동쪽으로	-10.3512
▁우수	-10.3513
잃	-10.3514
▁아침	-10.3515
▁앞에	-10.3521
병원	-10.3522
▁유사한	-10.3524
▁바르	-10.3525
ind	-10.3525
ock	-10.3526
붙	-10.3529
아웃	-10.3532
▁고유	-10.3533
ue	-10.3536
▁킹	-10.3537
▁협상	-10.3538
▁프로그램이다	-10.3542
▁항복	-10.3545
▁운용	-10.3546
AM	-10.3549
不	-10.355
▁반영	-10.3559
▁비록	-10.3567
▁사용하고	-10.3568
햄	-10.3568
▁한번	-10.3573
셋	-10.3574
▁이후에는	-10.3574
▁건국	-10.3577
▁성경	-10.3579
▁사운드	-10.3581
헨	-10.3585
4%	-10.3592
▁맡았	-10.3599
수록	-10.3599
배우	-10.3609
▁보장	-10.3611
▁연구소	-10.3611
▁취득	-10.3611
▁프랑	-10.3613
▁오른	-10.3615
▁분쟁	-10.3619
꾼	-10.3621
sion	-10.3623
▁변호사	-10.3623
▁취급	-10.3624
▁본사	-10.3632
▁개시	-10.3632
▁미니	-10.3646
▁데이비드	-10.3648
い	-10.3652
▁유학	-10.3658
▁관료	-10.3661
▁빠르게	-10.3666
▁능력을	-10.3666
▁피아노	-10.3668
깃	-10.3671
▁산하	-10.3679
▁이야기를	-10.3679
▁집행	-10.3684
▁증상	-10.3687
8%	-10.3687
주식회사	-10.3694
ru	-10.3695
벗	-10.3702
▁활발	-10.3702
́	-10.3703
光	-10.371
∼	-10.371
▁거래	-10.3712
▁서양	-10.3713
▁썼다	-10.3717
▁웨스트	-10.3718
▁포기	-10.3729
▁직전	-10.3731
▁시작한	-10.3731
레나	-10.3731
힐	-10.3736
郡	-10.3736
렸고	-10.3736
첸	-10.3741
▁가스	-10.3743
▁목소리	-10.3745
ome	-10.3767
▁보컬	-10.3773
в	-10.3773
냥	-10.3775
ath	-10.3777
7%	-10.3778
▁그레이	-10.378
▁출입	-10.3781
▁이용한	-10.3782
▁백작	-10.3784
공원	-10.3786
았던	-10.3791
학회	-10.3791
▁결승	-10.3792
▁있었	-10.3792
▁장악	-10.3795
같은	-10.3801
▁폴리	-10.3804
▁샌	-10.381
그리	-10.3812
▁유나이티드	-10.382
▁오래	-10.3822
▁파라	-10.3825
머리	-10.3827
팽	-10.3831
스트라	-10.3832
ust	-10.3833
▁국도	-10.3838
▁방면	-10.3842
▁Le	-10.3843
텍	-10.3864
▁번째로	-10.3864
ON	-10.3874
쿄	-10.3884
▁뽑	-10.3885
므	-10.3885
웃	-10.3889
좁	-10.3889
▁혼란	-10.3899
▁상당	-10.3906
▁논리	-10.3907
世	-10.3909
▁외국인	-10.391
▁그러한	-10.3913
프린	-10.3914
▁인류	-10.3918
武	-10.3927
so	-10.3928
▁상승	-10.3928
▁뜻을	-10.3933
▁통해서	-10.3934
6%	-10.3935
킴	-10.394
▁방향으로	-10.3943
▁SBS	-10.3945
▁일본군	-10.3958
▁깊은	-10.3959
▁갖	-10.3959
▁마크	-10.3959
陽	-10.3961
▁가사	-10.3967
君	-10.3969
▁인도네시아	-10.397
▁이르는	-10.3975
▁길이는	-10.3975
▁맛	-10.3976
▁방법을	-10.3979
NA	-10.3982
▁미완성	-10.3983
▁붙여	-10.3983
▁불법	-10.3986
▁한국어	-10.3989
둔	-10.3994
▁임대	-10.3994
▁말기	-10.3996
▁1000	-10.4002
si	-10.4006
넨	-10.4007
有	-10.4007
sa	-10.4014
▁포위	-10.4023
▁때부터	-10.4024
받고	-10.4026
▁도망	-10.4028
▁주기	-10.4031
자들을	-10.4031
퀸	-10.4031
ice	-10.4032
워드	-10.404
▁발표한	-10.4049
음에도	-10.4053
▁연산	-10.4054
▁터키	-10.4058
되지만	-10.4061
▁역임했다	-10.4064
▁높아	-10.4064
ID	-10.4064
ug	-10.4068
▁빠른	-10.4076
▁없다고	-10.4078
▁누구	-10.4078
▁45	-10.4081
pa	-10.4088
▁구성원	-10.4088
▁상륙	-10.4096
水	-10.4097
렛	-10.4097
▁엑스	-10.41
▁이유는	-10.4102
퍼드	-10.4103
▁탈출	-10.4105
▁지낸	-10.4106
使	-10.4109
▁예측	-10.4116
구조	-10.4119
▁뜻으로	-10.4126
조직	-10.4128
▁1958	-10.4132
▁해산	-10.4134
▁로스앤젤레스	-10.4136
▁참전	-10.4139
д	-10.414
사이드	-10.4142
主	-10.4145
황후	-10.4145
▁시청률	-10.415
ung	-10.4152
제국	-10.4154
▁개체	-10.4161
윗	-10.4163
▁열대	-10.4168
▁진입	-10.4174
▁납	-10.4176
툰	-10.4177
▁특별한	-10.4179
▁되면	-10.4181
되면	-10.4182
슐	-10.4194
▁김정	-10.4198
겠	-10.4198
▁위해서는	-10.4209
▁현장	-10.4211
중국	-10.4217
IT	-10.4219
會	-10.4222
▁교차	-10.4223
ary	-10.4224
▁수상했다	-10.4226
샘	-10.4229
▁창조	-10.4229
▁모드	-10.423
▁알렉산드	-10.4233
▁보안	-10.4239
Ch	-10.4239
700	-10.4242
▁포함하여	-10.4249
성군	-10.4251
▁1956	-10.4251
▁막부	-10.4252
븐	-10.4253
▁문서는	-10.4256
ach	-10.4258
▁챔피언	-10.426
▁예산	-10.4262
▁신성	-10.4262
였으나	-10.4268
미국	-10.4271
之	-10.4276
▁공산주의	-10.4279
▁짐	-10.4283
▁대략	-10.4285
▁Sh	-10.4286
▁울산	-10.4299
▁그런데	-10.4301
▁롯데	-10.4303
▁1947	-10.4306
▁자금	-10.4306
▁사항	-10.4307
▁빠져	-10.4308
▁SK	-10.4313
▁주세요	-10.4314
▁활동했다	-10.4314
ound	-10.4318
셉	-10.4319
hy	-10.432
▁상하이	-10.4321
▁이뤄	-10.4321
▁복합	-10.4322
었기	-10.4324
▁먹이	-10.4327
▁철수	-10.4327
토르	-10.4328
▁포르	-10.433
▁보아	-10.4335
장군	-10.4337
▁수집	-10.4342
▁건립	-10.4346
낸다	-10.435
▁1944	-10.4352
▁부임	-10.436
land	-10.4362
TO	-10.4364
륭	-10.4369
德	-10.4373
▁목표로	-10.4379
행정	-10.4385
▁출신으로	-10.4388
▁않았고	-10.4388
▁서비스를	-10.4389
ance	-10.4393
ct	-10.4394
▁존재하는	-10.4394
pl	-10.4395
▁콘서트	-10.4395
윙	-10.4397
▁연합군	-10.44
었지만	-10.4405
▁수술	-10.4406
ical	-10.441
▁변환	-10.4412
쿠르	-10.4415
▁전까지	-10.4415
▁Con	-10.4417
▁후속	-10.4418
▁공통	-10.4419
▁자살	-10.442
혔다	-10.4421
所	-10.443
▁효율	-10.4432
aw	-10.4434
▁비슷	-10.4435
▁영화제	-10.4435
▁주전	-10.4437
쿼	-10.4438
▁전철	-10.4439
▁탈락	-10.4442
없는	-10.445
AS	-10.4453
▁싸움	-10.4455
▁리더	-10.4459
▁그리스도	-10.446
연구소	-10.4462
▁조절	-10.4463
으려	-10.4464
▁생기	-10.4466
▁크리	-10.4469
▁초등학교이다	-10.4472
PS	-10.4472
▁후원	-10.4475
으니	-10.4476
▁생긴	-10.4479
▁카메라	-10.4482
▁챔피언십	-10.4483
▁흉	-10.4488
▁살인	-10.4499
▁피해를	-10.4506
▁폭력	-10.4508
▁스토리	-10.4509
▁나타내	-10.4509
▁천체	-10.4509
ial	-10.4517
ory	-10.4518
縣	-10.4519
▁보관	-10.4523
\	-10.4523
탐	-10.4527
▁하나님	-10.4532
az	-10.4533
▁나타난다	-10.4534
▁도구	-10.4535
都	-10.4535
▁소비에트	-10.4537
메르	-10.4542
▁타임	-10.4543
▁백제	-10.4545
▁시작된	-10.4548
▁영입	-10.4551
(17	-10.4556
▁찰스	-10.4556
▁수송	-10.4557
▁화물	-10.4558
▁편지	-10.456
門	-10.456
그램	-10.4562
▁산맥	-10.4573
▁챔피언스리그	-10.4574
뱅	-10.4578
▁최초	-10.4589
▁써	-10.4595
▁장르	-10.4602
▁희생	-10.4605
ies	-10.461
▁Tr	-10.4611
▁법칙	-10.4617
▁구속	-10.4619
▁완전	-10.462
▁경성	-10.4623
▁본부	-10.4624
ron	-10.4625
▁포함한다	-10.4627
▁완료	-10.4628
ite	-10.4629
▁일치	-10.4633
컴	-10.4642
ka	-10.4645
tra	-10.4646
9%	-10.4646
사우루스	-10.4647
▁1959	-10.4648
▁흐르	-10.4652
▁400	-10.4652
▁해양	-10.4656
▁대공	-10.4659
능력	-10.466
자키	-10.466
▁발견된	-10.4661
▁사전	-10.4661
앤	-10.4678
▁나타내는	-10.4681
▁싸우	-10.4682
▁취소	-10.4682
잠	-10.4686
▁들어서	-10.4691
ich	-10.4692
사랑	-10.4693
▁연출	-10.4695
▁시리아	-10.4699
계약	-10.4699
셈	-10.4705
▁여러분이	-10.4711
▁알파	-10.4714
▁철도역이다	-10.4715
▁FA	-10.4715
×	-10.4716
었으나	-10.4724
▁공기	-10.4726
▁1954	-10.4726
펄	-10.4732
▁주관	-10.4733
▁위반	-10.4734
▁아카	-10.4736
▁두었다	-10.4738
버린	-10.4757
у	-10.4761
상태	-10.4763
▁우려	-10.4769
뿐	-10.4776
▁저작권	-10.4776
▁상당한	-10.478
▁관할한다	-10.4785
▁많았	-10.4786
▁PC	-10.4796
SP	-10.4807
▁총독	-10.4809
▁학습	-10.4813
go	-10.4815
▁시작하여	-10.4819
▁제외하고	-10.4821
▁반발	-10.4823
▁1941	-10.4824
▁창단	-10.4824
▁마지막으로	-10.4826
▁전파	-10.4826
▁신뢰	-10.4829
we	-10.4829
▁한반도	-10.4832
꺾	-10.4839
▁잉	-10.4841
▁반드시	-10.4841
▁잡아	-10.4842
▁인터	-10.4843
▁세종	-10.4844
▁입자	-10.4849
란드	-10.4849
자로서	-10.4851
▁세르비아	-10.4852
▁인지	-10.4858
▁무리	-10.4863
▁진주	-10.4867
▁교환	-10.487
낙	-10.487
▁제대로	-10.4873
▁1952	-10.4875
里	-10.4877
▁개조	-10.4878
▁소속으로	-10.4879
▁정확한	-10.4879
▁변경되었다	-10.4883
드라마	-10.4893
▁모여	-10.4895
댄	-10.4898
펑	-10.4899
▁여부	-10.4903
▁그들이	-10.4906
▁성능	-10.4908
▁이것을	-10.4918
▁고양이	-10.4919
▁시청	-10.4927
▁높다	-10.4934
▁도서관	-10.4938
▁인권	-10.494
흘	-10.4946
▁압력	-10.495
▁청주	-10.4953
▁전공	-10.4954
▁둘째	-10.4955
토스	-10.4955
▁충청북도	-10.4959
▁움직임	-10.496
▁고종	-10.4961
흰	-10.4967
▁점점	-10.4967
▁계기로	-10.4968
듣	-10.4971
▁개최된	-10.4973
▁갈라	-10.4978
▁발언	-10.4979
▁국제공항	-10.4979
아프리카	-10.4979
겹	-10.498
훈장	-10.4983
Co	-10.4984
▁내리	-10.4985
▁고속	-10.4986
너스	-10.4986
▁느끼	-10.4988
▁자본	-10.4996
▁주둔	-10.5001
넌	-10.5009
▁받았고	-10.501
▁군대를	-10.5012
▁사태	-10.5013
▁진압	-10.5013
▁전통적인	-10.5014
▁않으며	-10.5017
▁교류	-10.502
▁대학교에서	-10.502
플레이	-10.5021
▁분명	-10.5024
▁부산광역시	-10.5028
▁상황에서	-10.5031
▁면적	-10.5034
녔	-10.5041
▁합격	-10.5045
▁밀도는	-10.5047
▁늦	-10.5047
▁망명	-10.5052
▁공동체	-10.5056
▁의학	-10.5057
▁끌어	-10.5059
박물관	-10.5059
▁조종	-10.5061
꾸	-10.5062
▁발표하였다	-10.5068
섹	-10.507
_6	-10.5071
▁인상	-10.5075
▁뉴질랜드	-10.5078
▁사법	-10.508
▁차별	-10.5084
페르	-10.5084
▁나왔다	-10.5091
▁최다	-10.5091
해져	-10.5096
쌀	-10.5098
▁베스트	-10.5101
▁1939	-10.5103
▁처형	-10.5103
▁예비	-10.5107
▁신분	-10.5108
▁부하	-10.5109
政	-10.5111
▁출연하였다	-10.5111
▁마쓰	-10.5116
ric	-10.5116
▁테러	-10.5117
▁받는다	-10.5119
▁통산	-10.512
▁조작	-10.5122
▁별명	-10.5132
▁물체	-10.5132
▁터널	-10.5137
▁톰	-10.514
▁여객철도	-10.5142
▁다르	-10.5145
▁불렀다	-10.5145
▁지금까지	-10.5145
▁스탠	-10.5146
▁동작	-10.5151
▁것이며	-10.5152
꼽	-10.516
▁빼앗	-10.517
▁받게	-10.5173
和	-10.5175
II	-10.5179
▁서식지	-10.5179
▁재건	-10.518
▁등장한다	-10.5185
▁맡아	-10.5187
▁DNA	-10.5189
데르	-10.519
▁공개된	-10.5193
트릭	-10.5193
port	-10.5199
죠	-10.5199
▁분할	-10.52
리온	-10.52
▁학위를	-10.5201
▁레오	-10.5202
▁메모리	-10.5204
▁재배	-10.5209
▁주택	-10.5209
▁마이크로소프트	-10.5216
▁뿌리	-10.5217
▁승진	-10.5217
뇨	-10.5217
펀	-10.5217
▁알려졌다	-10.5218
▁출간	-10.5218
▁쓸	-10.5221
스틱	-10.5221
▁갖는	-10.5222
UN	-10.5223
ina	-10.5229
▁준다	-10.5232
▁순간	-10.5233
넥	-10.5239
▁승객	-10.5239
ood	-10.524
▁항구	-10.5243
▁오스만	-10.5244
▁대화	-10.5251
서울	-10.5264
my	-10.5265
▁재료	-10.5267
▁있음을	-10.5268
▁이것	-10.5269
▁진보	-10.5275
단계	-10.528
잭	-10.528
▁그렇게	-10.528
기원전	-10.5286
▁메인	-10.5286
▁방법으로	-10.5288
▁사용되고	-10.529
▁1955	-10.5294
▁열렸다	-10.5295
▁동원	-10.5299
▁팝	-10.5308
▁배출	-10.531
신경	-10.5312
▁검찰	-10.5317
▁실수	-10.5318
▁주위	-10.5321
돕	-10.5323
▁화성	-10.5326
엉	-10.533
▁흑인	-10.5331
▁세계대전	-10.5332
▁임금	-10.5334
▁의심	-10.5336
왕후	-10.5336
니카	-10.5338
▁세인트	-10.5341
생물학	-10.5343
м	-10.5348
신문	-10.5349
▁1919	-10.535
*	-10.5351
und	-10.5356
▁닥터	-10.5357
되어야	-10.5359
▁단독	-10.5362
▁것입니다	-10.5362
AD	-10.5372
편성	-10.5373
▁1953	-10.5374
▁서버	-10.5375
▁출장	-10.5376
하므로	-10.5379
▁협정	-10.5384
▁어떠한	-10.5385
定	-10.5393
훌	-10.5395
▁상위	-10.5401
▁이루어졌다	-10.5408
▁함대	-10.541
韓	-10.5414
▁거두었다	-10.5414
▁장교	-10.5415
▁강원도	-10.5417
▁채용	-10.5417
▁지급	-10.5418
▁무덤	-10.5423
소설	-10.5426
▁나타낸다	-10.5429
島	-10.5432
▁출시되었다	-10.5436
잎	-10.5438
▁가졌다	-10.5442
▁마침내	-10.5442
相	-10.5447
▁문장	-10.5451
▁위상	-10.5454
깊	-10.5457
섞	-10.5458
▁있었기	-10.5459
▁일제강점기	-10.5461
▁1957	-10.547
▁일찍	-10.5473
sc	-10.5475
플라	-10.5481
▁뜻하는	-10.5482
▁횡	-10.5491
▁시카고	-10.5496
▁연안	-10.5502
仁	-10.5503
min	-10.5504
했었다	-10.5505
▁희망	-10.5508
▁나이로	-10.5509
눌	-10.5512
▁혈액	-10.5516
▁모아	-10.5523
▁방정식	-10.5524
▁루이스	-10.5527
꼴	-10.5529
▁정차	-10.553
▁관직	-10.553
▁혼합	-10.5531
▁말았다	-10.5536
ree	-10.5537
▁파악	-10.5539
▁많아	-10.5539
▁맞추	-10.5542
▁개신교	-10.5548
TA	-10.5553
짓	-10.5567
돔	-10.5571
▁만들기	-10.5574
▁코르	-10.5576
MA	-10.5576
小	-10.5576
▁신청	-10.5577
▁구현	-10.5584
버트	-10.5584
▁방해	-10.5584
▁조지아	-10.559
도서관	-10.5599
▁농민	-10.5607
▁크로아티아	-10.5609
▁노벨	-10.5612
Gr	-10.5613
주었다	-10.5614
▁웹사이트	-10.5614
▁인공	-10.5616
▁제공하는	-10.5618
▁명나라	-10.5618
▁홍보	-10.5619
▁향해	-10.5621
우치	-10.5634
col	-10.5635
ear	-10.5635
▁소송	-10.5647
백만	-10.566
시험	-10.566
▁분열	-10.5663
▁화면	-10.5663
이었지만	-10.5665
문제	-10.5667
힘	-10.5668
▁국방	-10.5682
▁금메달을	-10.5683
▁의장	-10.5684
eb	-10.5687
經	-10.5688
▁국가대표	-10.569
▁정치인이다	-10.5691
ba	-10.5693
▁훗날	-10.5693
계획	-10.5699
▁미드필더	-10.5705
▁방영된	-10.5709
▁발견되었다	-10.571
▁도전	-10.5713
ick	-10.5715
▁발생하는	-10.5723
▁녹색	-10.5728
▁접촉	-10.5728
▁법정	-10.5729
司	-10.5729
▁AFC	-10.5731
▁기체	-10.5733
▁폐쇄	-10.5739
▁소멸	-10.5739
▁띄	-10.574
▁화산	-10.574
사무소	-10.5741
▁생태	-10.5742
ga	-10.5744
▁추구	-10.5745
▁충격	-10.5745
시리즈	-10.5747
▁페르시아	-10.5751
▁양쪽	-10.5752
▁계곡	-10.5753
▁지붕	-10.5765
쌍	-10.5768
▁묶	-10.5768
▁확산	-10.5769
▁손상	-10.578
개혁	-10.5785
▁범주	-10.5791
렇	-10.5798
▁연간	-10.5801
▁등장인물	-10.5801
▁타격	-10.5804
▁기록하였다	-10.5805
▁1942	-10.5812
레이크	-10.5816
▁시작한다	-10.5818
툴	-10.582
▁호주	-10.5828
mb	-10.5831
▁전국동시지방선거	-10.5833
▁복수	-10.5835
▁지위	-10.5836
ي	-10.5838
Al	-10.5839
받침	-10.584
핸	-10.585
▁것이라는	-10.5851
▁기호	-10.5855
官	-10.5857
MP	-10.5857
▁완공	-10.5858
▁조문	-10.5859
lan	-10.5859
mer	-10.5863
▁사용했다	-10.5872
▁화재	-10.5873
▁순수	-10.5874
▁출범	-10.5877
▁분야에서	-10.5882
곰	-10.5889
▁적극	-10.5892
ica	-10.5892
▁구글	-10.5895
베르트	-10.5897
ん	-10.5901
▁포트	-10.5903
▁독립운동	-10.591
In	-10.5912
▁설립되었다	-10.5915
빵	-10.5915
▁나아가	-10.5924
▁개입	-10.5927
였지만	-10.5928
▁1943	-10.5928
▁확률	-10.5929
▁없으며	-10.5931
▁US	-10.5933
▁사장	-10.5936
mon	-10.5936
ort	-10.5939
▁분위기	-10.5942
▁쓰고	-10.5946
前	-10.5947
▁노출	-10.595
공간	-10.5952
하였던	-10.5957
▁작동	-10.5958
▁활동하였다	-10.596
▁사유	-10.5961
▁심각한	-10.5963
릭스	-10.5969
억원	-10.5969
▁작품이다	-10.5971
기록	-10.5972
者	-10.5974
▁획득했다	-10.5975
gen	-10.5976
▁움직이	-10.5985
▁학술	-10.5985
랴	-10.5986
▁복무	-10.599
理	-10.5993
▁수도원	-10.5995
▁유행	-10.5996
▁밝히	-10.5998
▁애플	-10.6004
▁사냥	-10.6006
心	-10.6014
▁않게	-10.6015
쫓	-10.6016
았으며	-10.6022
▁병사	-10.6022
뿔	-10.6027
▁단층	-10.603
▁선정되었다	-10.603
龍	-10.6032
▁죽었다	-10.6035
▁자극	-10.6041
DP	-10.6042
▁황금	-10.6044
▁재개	-10.6045
▁보여준다	-10.6045
▁KBO	-10.6052
▁로봇	-10.6053
▁저술	-10.6063
ture	-10.6065
▁않으면	-10.6076
▁태어났으며	-10.6078
▁가진다	-10.6082
▁이룬다	-10.6083
les	-10.6086
쿠라	-10.6088
▁So	-10.6092
복음	-10.6095
▁축제	-10.61
ire	-10.6102
五	-10.6111
▁만들어졌다	-10.6112
낭	-10.6112
▁주연	-10.6117
▁전직	-10.6118
카타	-10.6124
▁발굴	-10.6124
▁공중	-10.6131
▁양산	-10.6132
▁포함하고	-10.6132
し	-10.6139
동맹	-10.6141
▁연료	-10.6143
딕	-10.6148
are	-10.615
▁알렉	-10.6151
▁사임	-10.6157
▁화석	-10.6165
▁테스트	-10.6165
▁지켜	-10.6166
▁존재하지	-10.6174
환경	-10.6177
▁크고	-10.6178
셸	-10.6178
▁악화	-10.6181
▁바깥	-10.6182
▁로켓	-10.6188
▁억제	-10.6188
궐	-10.6189
▁멀리	-10.6192
▁오랫동안	-10.6198
ر	-10.6204
▁농구	-10.621
만명	-10.621
츠키	-10.6214
▁나누어	-10.6216
▁흐름	-10.6217
▁어디	-10.6219
▁니콜라	-10.6221
江	-10.6222
▁간행	-10.6224
브레	-10.6224
▁올려	-10.6225
▁인증	-10.6226
▁성향	-10.6226
▁당시에는	-10.6227
▁약물	-10.6227
Un	-10.6231
▁히트	-10.6232
팡	-10.6237
▁브라운	-10.624
▁아이돌	-10.6241
▁개막	-10.6243
▁버튼	-10.6244
▁리처드	-10.6248
▁단편	-10.6249
ase	-10.6263
▁에르	-10.6268
▁결론	-10.627
▁그때	-10.6273
町	-10.6273
▁오페라	-10.6277
▁1936	-10.6277
▁주장한다	-10.6284
ü	-10.6284
▁보고서	-10.6285
▁1951	-10.6294
넘	-10.63
下	-10.63
▁대량	-10.6302
▁내셔널	-10.6306
대한민국	-10.6309
식물	-10.631
▁분해	-10.631
300	-10.631
▁시간대	-10.6314
▁사립	-10.6314
▁만든다	-10.6316
▁이라크	-10.6318
▁듣고	-10.6322
▁좌우	-10.6323
▁운항	-10.6325
▁추천	-10.6327
▁코파	-10.6335
FC	-10.6347
▁얻은	-10.6348
▁통상	-10.6349
▁흘러	-10.6353
▁아파트	-10.6354
▁유일하게	-10.6356
▁절반	-10.6356
CC	-10.6358
커스	-10.636
▁절차	-10.6369
딱	-10.6373
ο	-10.6373
▁기둥	-10.6376
▁천문학	-10.6377
▁포함된다	-10.6377
▁실력	-10.6381
▁발음	-10.6383
▁진행되었다	-10.6383
▁가슴	-10.6386
▁모형	-10.6388
혔	-10.6389
sch	-10.6389
▁등판	-10.6391
엑	-10.6402
▁새롭게	-10.6404
▁근본	-10.6404
gu	-10.641
공신	-10.6418
▁함락	-10.642
▁실현	-10.6421
독립	-10.6423
▁마무리	-10.6424
▁끝내	-10.6426
TC	-10.6427
썼	-10.6429
▁여겨진다	-10.643
▁손자	-10.6443
_7	-10.6447
▁피터	-10.645
▁타이완	-10.646
▁않기	-10.6463
▁기울	-10.6467
▁액션	-10.6471
▁심장	-10.6473
▁합쳐	-10.6474
▁진단	-10.6475
▁팬들	-10.6476
▁어려운	-10.6477
여단	-10.6484
▁빌보드	-10.6484
▁에드워드	-10.6485
RO	-10.6486
ner	-10.6488
cl	-10.6493
▁올렸다	-10.6498
▁처벌	-10.6503
▁탄소	-10.6504
New	-10.6505
▁서명	-10.6506
▁독특한	-10.6509
▁의혹	-10.6509
▁고통	-10.6517
▁설치된	-10.6523
▁탐사	-10.6524
▁가설	-10.6525
▁머물	-10.6528
▁이승만	-10.6528
▁커버	-10.653
▁관여	-10.6532
▁아이들	-10.6534
▁매장	-10.6538
콧	-10.6544
▁인용	-10.6547
▁이혼	-10.6551
▁주어진	-10.6556
que	-10.656
▁받아들여	-10.6561
う	-10.6561
▁있습니다	-10.6562
▁기회를	-10.6566
▁참여했다	-10.6571
▁인쇄	-10.6575
▁국가들	-10.6579
타케	-10.6581
▁왕실	-10.6584
▁사용된	-10.6587
ple	-10.6593
▁장남	-10.66
م	-10.6601
▁벗어나	-10.6603
빼	-10.6603
▁원형	-10.6603
아메리칸	-10.661
▁확립	-10.6611
▁크다	-10.6615
▁경제학	-10.6616
닉스	-10.662
▁왕자	-10.6622
밖	-10.6622
▁급제	-10.6623
▁1938	-10.663
▁라틴어	-10.6631
둑	-10.6633
▁주장하였다	-10.6634
白	-10.6637
들로부터	-10.6639
cy	-10.6642
IM	-10.6643
▁당초	-10.6644
연구원	-10.6647
▁유물	-10.6647
▁침략	-10.6649
핫	-10.6662
▁쓰이는	-10.6663
str	-10.6667
▁상대적으로	-10.6669
An	-10.667
▁중력	-10.6674
밭	-10.6681
pt	-10.6683
own	-10.6685
▁To	-10.6689
▁파워	-10.6693
▁보유하고	-10.6693
▁다케	-10.6703
▁복원	-10.6707
▁혐의로	-10.6707
民	-10.6709
▁지위를	-10.6716
▁발발	-10.6722
▁날개	-10.6726
닷	-10.6727
ier	-10.6732
▁에드	-10.6733
▁나타났다	-10.674
겁	-10.6742
、	-10.6744
굽	-10.6744
▁레이블	-10.675
ium	-10.6756
▁않지만	-10.6759
▁내렸다	-10.6763
듯	-10.6764
▁나온다	-10.6766
▁엄청난	-10.6767
ED	-10.6774
ven	-10.6776
▁그곳에서	-10.6776
듯이	-10.6784
▁다룬	-10.6787
▁벡터	-10.6788
▁갈색	-10.6793
▁토론토	-10.6804
▁다르게	-10.6812
▁것들	-10.6812
▁수익	-10.6815
장애	-10.6817
▁침입	-10.682
}	-10.6821
▁징역	-10.6827
▁느낌	-10.6827
▁안내	-10.6833
lin	-10.6834
▁강등	-10.6837
▁어려움	-10.6838
▁텍사스	-10.6838
▁뮤지컬	-10.6842
끼리	-10.6843
▁심지어	-10.6847
イ	-10.6852
▁어깨	-10.6853
▁적합	-10.6856
킷	-10.6864
턱	-10.6866
▁권위	-10.6867
▁만들고	-10.6873
ile	-10.6876
▁건축물	-10.6878
皇	-10.6879
사람	-10.6892
ES	-10.6896
朝	-10.6896
▁석유	-10.69
▁알레	-10.6902
記	-10.6904
▁예전	-10.6905
바흐	-10.6907
▁앤드	-10.6911
되거나	-10.6911
▁완전한	-10.6912
夫	-10.6914
▁일어났다	-10.6918
머스	-10.6924
▁연결하는	-10.6925
▁이르러	-10.6928
▁방송국	-10.693
the	-10.694
朴	-10.694
ana	-10.6943
▁환승	-10.6944
忠	-10.6945
▁여왕	-10.6946
▁그래픽	-10.6948
▁보았다	-10.6949
▁저녁	-10.695
馬	-10.6959
▁배급	-10.696
興	-10.6961
▁주최	-10.6964
松	-10.6975
▁설득	-10.6977
▁목사	-10.6979
▁구매	-10.698
▁광장	-10.6981
팬	-10.6981
▁바뀌었다	-10.6982
▁나폴레옹	-10.6983
콕	-10.6997
▁여론	-10.6999
▁받았으며	-10.7006
▁깊이	-10.7006
ax	-10.7008
▁거듭	-10.7009
DS	-10.7011
年	-10.7012
▁분노	-10.7016
vo	-10.7016
▁1937	-10.7017
▁편찬	-10.7025
林	-10.7026
틈	-10.7028
▁공헌	-10.7029
宮	-10.703
▁개설	-10.703
校	-10.7034
▁골든	-10.7036
포드	-10.7043
▁있으면	-10.7045
CH	-10.7047
▁헤르	-10.7048
▁최후	-10.7048
▁학살	-10.7054
닭	-10.7058
▁펼쳐	-10.7058
臣	-10.706
永	-10.7066
史	-10.7066
old	-10.7066
▁더블	-10.7069
▁참가했다	-10.7076
테크	-10.7083
5,000	-10.7085
▁선박	-10.7087
▁말레이시아	-10.7088
▁영웅	-10.71
京	-10.7104
聖	-10.7105
슴	-10.7107
켰	-10.7113
▁떠났다	-10.7114
▁프리드리히	-10.7116
자동차	-10.7121
▁일으킨	-10.7122
▁루마니아	-10.7124
ish	-10.7129
▁만난	-10.7141
원숭이	-10.7143
파이어	-10.7144
▁활성화	-10.7146
랫	-10.7163
▁질문	-10.7167
▁못한다	-10.7169
ス	-10.7171
▁집권	-10.7179
▁화이트	-10.7189
▁업적	-10.7194
되게	-10.7196
▁피해자	-10.7198
▁필수	-10.7199
RA	-10.7204
▁천주교	-10.7207
▁메시지	-10.7208
▁보병	-10.7214
▁1935	-10.7214
ن	-10.7218
洞	-10.7227
스틴	-10.7234
知	-10.7238
John	-10.7246
▁입력	-10.7247
CS	-10.7248
▁예정이다	-10.7249
▁독일군	-10.7251
OR	-10.7252
▁메이지	-10.7259
RE	-10.7264
▁1932	-10.7271
ith	-10.7276
드래곤	-10.7278
IV	-10.728
퓨	-10.728
▁근육	-10.7281
▁넣어	-10.7282
▁갖추	-10.7286
▁행렬	-10.729
World	-10.729
▁1914	-10.7295
styles	-10.7302
▁포맷	-10.7302
▁잭슨	-10.7303
▁1910	-10.7312
by	-10.7323
냈고	-10.7328
方	-10.7333
▁세계적으로	-10.7336
▁베이스	-10.7338
▁식품	-10.7338
野	-10.7339
▁발탁	-10.7342
늄	-10.7343
▁싱가포르	-10.7347
열차	-10.7348
싶	-10.7354
▁학자들	-10.7358
▁부친	-10.7362
버렸다	-10.737
▁연습	-10.7375
AL	-10.7375
市	-10.7378
▁탈퇴	-10.7379
▁모터	-10.7381
▁바이에른	-10.7384
趙	-10.7386
▁포함하는	-10.7389
▁들어간	-10.7395
밸	-10.7398
▁나뉜다	-10.7403
▁물건	-10.7403
▁테마	-10.7405
LA	-10.7415
로이드	-10.7418
옌	-10.7419
▁남아프리카	-10.7421
렘	-10.7429
▁몰아	-10.7435
▁점수	-10.7435
▁레알	-10.7437
AI	-10.7442
리얼	-10.7443
善	-10.7446
▁긍정적	-10.7446
十	-10.7447
SE	-10.7448
信	-10.7452
▁가까이	-10.7455
▁순환	-10.7455
▁여객	-10.7456
스럽게	-10.7459
달러	-10.7463
▁천연	-10.7463
▁오디오	-10.7473
▁오버	-10.7477
룽	-10.7485
랍	-10.749
▁맞서	-10.7491
▁나누	-10.7495
슬리	-10.7496
뜨리	-10.7496
▁불가리아	-10.7498
▁대사관	-10.75
▁스티븐	-10.7506
▁원주민	-10.7506
性	-10.7507
▁졸업하고	-10.751
二	-10.7517
▁크루	-10.7519
▁음성	-10.7528
▁1900	-10.7538
時	-10.7543
뷔	-10.7549
▁1918	-10.7552
▁무료	-10.7557
재판소	-10.7558
극장	-10.7567
▁구입	-10.7567
앉	-10.7572
▁1933	-10.7572
▁한글	-10.7577
▁완벽	-10.7578
▁개별	-10.7585
▁글로벌	-10.7585
▁1928	-10.7586
▁발생한다	-10.7591
킥	-10.7591
▁부담	-10.7597
▁가담	-10.7606
▁멸종	-10.7606
떨	-10.7611
▁프로이센	-10.7618
▁1934	-10.762
물질	-10.7622
ris	-10.7623
굳	-10.7629
▁바르셀로나	-10.7629
▁시상식	-10.7629
漢	-10.763
▁민법	-10.7639
▁쿠데타	-10.7639
士	-10.7641
▁패션	-10.7643
▁나들목	-10.7648
400	-10.7659
й	-10.7662
▁맞아	-10.7672
▁Man	-10.7679
▁HD	-10.7681
진흥	-10.7683
▁개방	-10.7684
四	-10.7689
▁입법	-10.7691
스텔	-10.7696
▁동메달	-10.7698
_8	-10.77
unt	-10.7703
▁글자	-10.7703
▁얻을	-10.7712
SL	-10.7713
▁이웃	-10.7718
▁보건	-10.7718
ó	-10.7723
▁홋카이도	-10.7728
ade	-10.774
▁불렸다	-10.7751
▁스미스	-10.7754
쏘	-10.7755
▁차단	-10.7762
▁게다가	-10.7764
흙	-10.7764
▁갖추고	-10.7766
▁재생	-10.7774
목록	-10.7775
▁모바일	-10.7777
▁행복	-10.7781
▁이루고	-10.7782
▁스타디움	-10.7783
럿	-10.7783
▁밝혀졌다	-10.7787
▁이끌었다	-10.7788
▁관해서는	-10.779
ster	-10.779
▁주니어	-10.7795
▁임진왜란	-10.7802
▁아티스트	-10.7804
되던	-10.7807
▁좋지	-10.7812
맞	-10.7813
▁골드	-10.7819
▁지속적으로	-10.7826
▁광복	-10.7827
化	-10.7832
敎	-10.7836
▁인천광역시	-10.7847
▁그곳	-10.7856
▁일련의	-10.7858
▁여섯	-10.786
▁인생	-10.7865
▁대법원	-10.7867
왔고	-10.7869
木	-10.7871
▁해설	-10.7872
▁출력	-10.7882
쥬	-10.7884
▁쓰여	-10.7887
투표	-10.7891
▁자리잡	-10.7892
▁예방	-10.7901
帝	-10.7905
▁규제	-10.7909
cc	-10.7909
▁이어지는	-10.7915
▁추방	-10.7918
▁갑자기	-10.792
tro	-10.7924
▁들어갔다	-10.7928
헬	-10.7933
빚	-10.7946
▁남겼다	-10.7947
▁아름다운	-10.795
▁서울대학교	-10.7965
▁1924	-10.7967
▁메달	-10.7968
ruby	-10.7971
慶	-10.7972
껍	-10.7972
▁따서	-10.7976
탓	-10.7979
▁인디언	-10.7979
▁개칭	-10.798
왈	-10.799
▁벌어진	-10.7993
ς	-10.7994
Wh	-10.7999
ル	-10.8
▁달려	-10.8002
▁거짓	-10.8007
ake	-10.8013
▁기록하며	-10.8014
슈타인	-10.8017
RT	-10.8029
tri	-10.803
캠	-10.8033
▁포항	-10.804
▁선임	-10.8045
EN	-10.8046
河	-10.8048
•	-10.8051
ost	-10.8053
代	-10.8055
▁검토	-10.8058
▁크로스	-10.806
í	-10.8064
▁유효	-10.8071
▁고객	-10.8072
▁알고리즘	-10.8083
▁은메달	-10.8083
▁복잡한	-10.8091
formula	-10.8092
か	-10.8094
全	-10.8101
張	-10.8105
▁기본적으로	-10.8109
뒤	-10.811
깔	-10.8113
▁승려	-10.812
▁사람들에게	-10.8124
第	-10.8127
푼	-10.813
▁이른다	-10.8131
▁떠난	-10.8133
▁후계자	-10.8139
▁연결되어	-10.8142
▁검색	-10.8142
▁습격	-10.8144
ix	-10.8145
▁계속해서	-10.8145
▁언덕	-10.815
▁서술	-10.8164
NE	-10.8167
▁손실	-10.817
방향	-10.8173
▁블록	-10.8177
▁지상역이다	-10.8183
▁창당	-10.8184
月	-10.8185
del	-10.8186
▁파키스탄	-10.8192
벳	-10.8192
▁당나라	-10.8196
캡	-10.8198
▁EP	-10.8201
▁그렇지	-10.8207
해지고	-10.8214
▁안토니	-10.8222
▁자매	-10.8223
▁전동차	-10.8226
▁수비수	-10.8232
act	-10.824
▁연설	-10.8241
▁파트너	-10.8241
봐	-10.8245
▁디스크	-10.8251
위안	-10.8253
▁줄어들	-10.8254
▁흰색	-10.8256
왔으며	-10.827
▁방언	-10.8272
▁임의의	-10.8277
▁후쿠오카	-10.8279
▁법학	-10.8284
▁암컷	-10.8284
г	-10.8285
▁돌려	-10.8293
▁균형	-10.8293
羅	-10.8303
▁진격	-10.8306
떼	-10.8308
▁다음날	-10.8313
▁지니고	-10.8318
실점	-10.8326
社	-10.8328
샹	-10.8328
▁구성된다	-10.8331
▁히가시	-10.8336
▁접한다	-10.8339
通	-10.8343
鄭	-10.8353
▁연락	-10.8353
▁1931	-10.8355
되었기	-10.836
▁질환	-10.8367
▁받아들이	-10.8371
国	-10.8371
▁천안	-10.8375
後	-10.8375
과학기술	-10.8379
古	-10.838
▁이벤트	-10.8385
▁박정희	-10.8389
▁최우수	-10.84
▁유형문화재	-10.8401
▁민중	-10.8404
▁그녀가	-10.8406
▁연결됩니다	-10.8409
ل	-10.8411
▁크리스티	-10.8417
▁면역	-10.8424
▁칠레	-10.8429
▁뮌헨	-10.843
▁별도의	-10.843
▁선출되었다	-10.843
▁궁전	-10.8441
▁밀려	-10.8444
시스템	-10.8446
▁닌텐도	-10.8452
▁이르렀다	-10.8455
▁소비자	-10.8461
use	-10.8463
▁이루는	-10.8463
▁병합	-10.8465
▁1929	-10.8467
굿	-10.8471
▁쓰러	-10.8473
▁창작	-10.8476
▁거점	-10.8477
▁체코	-10.8478
▁콘텐츠	-10.8482
▁없게	-10.8483
▁히틀러	-10.8491
▁폭격	-10.8494
▁감각	-10.8495
바이러스	-10.8497
▁단순히	-10.8511
지방법원	-10.8521
폼	-10.8523
▁대한제국	-10.8528
▁재능	-10.8531
▁착용	-10.8539
▁일으켰다	-10.8546
面	-10.8546
▁아테네	-10.8549
MI	-10.8549
ox	-10.8553
▁히데	-10.8565
「	-10.857
쁜	-10.8572
ave	-10.8576
밤	-10.8582
▁촉진	-10.8589
릇	-10.8595
▁출처	-10.8596
▁혐의	-10.8599
▁돌아온	-10.8608
將	-10.8615
同	-10.8622
▁Love	-10.8627
ν	-10.8632
▁증언	-10.8632
▁작위	-10.8639
▁계층	-10.864
▁프리미어리그	-10.8643
▁세리에	-10.8645
웨어	-10.8646
듬	-10.8647
▁상호작용	-10.865
物	-10.8659
▁개량	-10.866
녹	-10.8661
▁이른바	-10.8674
▁히로시마	-10.8676
▁1925	-10.8679
▁충분히	-10.8681
퉁	-10.8692
▁베네치아	-10.8694
▁1923	-10.8701
느냐	-10.872
▁허락	-10.8725
프랑스	-10.8753
흑	-10.8753
form	-10.8768
▁중요성	-10.877
▁갖는다	-10.8773
▁돌아오	-10.8774
닮	-10.8776
▁철거	-10.8781
昌	-10.8786
▁바둑	-10.8786
و	-10.8788
▁물고기	-10.8793
앱	-10.8795
▁안쪽	-10.8802
▁폐지되었다	-10.8805
▁힘들	-10.8807
▁보좌	-10.8808
펙	-10.8817
평론가	-10.8821
▁준결승	-10.8826
▁자회사	-10.8827
▁마르크스	-10.8829
▁1921	-10.8832
딴	-10.8833
▁DVD	-10.8833
▁마틴	-10.8834
ö	-10.8835
▁소식을	-10.8838
▁화합물	-10.8847
▁이외의	-10.885
名	-10.8851
ove	-10.8855
▁여동생	-10.8857
▁복잡	-10.8858
▁클래스	-10.8859
堂	-10.8871
▁정교회	-10.8886
▁수도권	-10.8888
렸으며	-10.8895
_9	-10.8896
▁스프링	-10.8897
▁혁신	-10.8903
な	-10.8906
八	-10.8919
▁김일성	-10.892
▁오리지널	-10.8928
▁액체	-10.8933
▁도움이	-10.8941
▁1922	-10.8943
▁구멍	-10.8944
權	-10.8945
▁건담	-10.8949
▁일으켜	-10.8957
q	-10.8963
▁쿠바	-10.8965
▁농촌	-10.898
합니다	-10.8984
ble	-10.8984
▁골키퍼	-10.8986
▁강릉	-10.8988
뱅크	-10.8991
큰	-10.8992
홉	-10.8993
노미야	-10.8997
닫	-10.9
▁미나미	-10.9006
▁도쿠가와	-10.9012
경찰서	-10.9026
▁가끔	-10.9028
▁편곡	-10.903
佛	-10.9031
▁물리적	-10.9031
▁치렀다	-10.9034
▁사퇴	-10.9041
▁종교적	-10.9053
▁시작했고	-10.9062
아일랜드	-10.9071
▁북아메리카	-10.9072
▁하여금	-10.9076
겸	-10.9084
▁득표율	-10.9091
▁비롯하여	-10.9094
▁할아버지	-10.9105
▁호흡	-10.9107
▁취리히	-10.9109
ata	-10.911
▁드래프트	-10.9119
▁멀티	-10.9126
기하학	-10.9133
▁1,000	-10.9134
▁프로그래밍	-10.9136
▁있으므로	-10.9142
▁내놓	-10.9143
ook	-10.9145
▁들면	-10.9151
땅	-10.9157
톡	-10.9158
分	-10.9168
▁국방부	-10.9178
女	-10.9182
▁로렌	-10.9189
▁수컷	-10.9193
ラ	-10.9202
▁동성애	-10.9212
▁전세계	-10.9224
▁메탈	-10.9225
▁타율	-10.9225
동맥	-10.9231
▁모험	-10.9231
▁허브	-10.9237
셨	-10.9249
▁위대한	-10.9253
▁요금	-10.926
▁일종의	-10.9268
하르트	-10.9269
▁1926	-10.9272
▁그녀를	-10.9282
▁운송	-10.9284
▁캘리포니아주	-10.9288
▁클래식	-10.9288
尹	-10.9291
▁흔적	-10.93
샬	-10.93
▁아프가니스탄	-10.9318
▁탄압	-10.9327
見	-10.9327
合	-10.9358
꿀	-10.9375
崔	-10.9408
ι	-10.9433
師	-10.9443
淸	-10.9493
듀	-10.9493
た	-10.9516
엣	-10.9529
못	-10.9543
옷	-10.9547
덧	-10.962
툼	-10.9654
쉐	-10.9664
د	-10.9667
立	-10.9678
붓	-10.9679
ä	-10.9718
吉	-10.9747
놈	-10.9783
꼭	-10.9796
と	-10.9804
벼	-10.9827
美	-10.9838
컷	-10.9851
自	-10.9869
슘	-10.9874
쿤	-10.9874
닿	-10.9914
ب	-10.9917
갓	-10.9917
華	-10.9935
$	-10.994
뚫	-10.9956
벡	-10.9969
б	-10.9983
칩	-11.0001
댐	-11.0015
젖	-11.0033
論	-11.0049
쑤	-11.0081
쯤	-11.0114
ρ	-11.0116
守	-11.0124
콰	-11.0151
없	-11.0162
重	-11.0167
싼	-11.0178
禮	-11.0192
樂	-11.0251
谷	-11.0263
켜	-11.0266
ь	-11.0285
즌	-11.0296
혐	-11.0345
等	-11.0347
줬	-11.0364
ト	-11.0406
〈	-11.0407
祖	-11.0419
앗	-11.0447
孝	-11.0497
業	-11.0522
뿌	-11.0546
リ	-11.0556
ま	-11.0579
끔	-11.06
둠	-11.0644
잘	-11.0648
옴	-11.0689
字	-11.07
걷	-11.0701
헐	-11.0704
퐁	-11.0769
≫	-11.0853
≪	-11.0856
잊	-11.0865
り	-11.0867
內	-11.0887
딸	-11.0899
펌	-11.0914
ク	-11.0931
렁	-11.0943
솜	-11.0958
福	-11.0975
я	-11.099
꿈	-11.101
멍	-11.1015
콥	-11.1016
像	-11.104
τ	-11.1043
곁	-11.1058
같	-11.1058
띤	-11.1067
六	-11.1069
集	-11.1087
팜	-11.1093
멋	-11.1096
갱	-11.1144
핍	-11.1174
井	-11.1189
봇	-11.119
픈	-11.1215
쯔	-11.1216
ā	-11.1255
웬	-11.1276
즉	-11.1285
花	-11.1324
身	-11.1342
뮬	-11.1343
ア	-11.1346
쁘	-11.1352
휠	-11.1394
雲	-11.1419
き	-11.1431
ッ	-11.1434
덱	-11.1477
兵	-11.1493
判	-11.152
春	-11.1524
С	-11.1527
黃	-11.1527
劉	-11.1567
基	-11.157
옐	-11.1608
る	-11.1617
춰	-11.1618
뚝	-11.1623
九	-11.1626
寧	-11.1635
路	-11.1714
利	-11.1717
ы	-11.1721
尙	-11.173
얄	-11.1746
科	-11.1761
빅	-11.1763
톰	-11.1763
○	-11.1774
퀘	-11.1777
텀	-11.1778
動	-11.179
깝	-11.1809
孫	-11.1834
洪	-11.1835
흠	-11.1838
캉	-11.1867
ら	-11.1886
깨	-11.1888
體	-11.1893
衛	-11.1893
的	-11.1922
直	-11.1928
順	-11.1931
μ	-11.1931
圖	-11.1941
治	-11.195
廣	-11.196
色	-11.1976
솟	-11.1983
п	-11.1989
봤	-11.2009
殿	-11.2032
섯	-11.2054
根	-11.2064
陵	-11.2064
※	-11.2068
λ	-11.2068
왜	-11.2077
짱	-11.2084
鎭	-11.2094
톈	-11.21
맛	-11.2121
星	-11.2143
뉘	-11.215
議	-11.2152
튀	-11.2173
빔	-11.2176
功	-11.2212
겉	-11.2212
긋	-11.2216
別	-11.2228
밟	-11.2232
훔	-11.2236
藤	-11.2272
建	-11.2373
津	-11.2376
に	-11.2423
館	-11.2461
뚜	-11.2468
柳	-11.2471
萬	-11.2481
周	-11.2505
젝	-11.2505
옵	-11.2509
外	-11.2529
思	-11.2529
삽	-11.2536
く	-11.2543
命	-11.2546
쏟	-11.2612
監	-11.2635
띠	-11.2647
떡	-11.2685
펴	-11.2693
ε	-11.2699
場	-11.2705
承	-11.2726
‘	-11.2736
源	-11.274
벵	-11.2768
А	-11.2772
御	-11.2786
륵	-11.28
英	-11.2814
꽤	-11.2832
갤	-11.2849
保	-11.2856
휩	-11.2856
왓	-11.286
驛	-11.2885
س	-11.2892
싯	-11.2892
펫	-11.2892
度	-11.2895
돋	-11.292
侯	-11.2938
空	-11.297
宣	-11.2999
作	-11.3006
靑	-11.3013
꿔	-11.3021
眞	-11.3024
앞	-11.3027
굵	-11.3028
線	-11.3031
制	-11.3056
뭉	-11.3075
は	-11.3081
觀	-11.3107
景	-11.3111
親	-11.3114
썬	-11.3151
郎	-11.3158
玉	-11.3165
條	-11.3169
間	-11.3176
씀	-11.3191
끓	-11.3202
높	-11.3212
左	-11.3216
令	-11.3246
お	-11.329
츄	-11.3301
章	-11.3309
훼	-11.3316
컸	-11.3316
및	-11.3358
꾀	-11.3383
맘	-11.3391
−	-11.3405
傳	-11.3409
宋	-11.3443
濟	-11.3446
햇	-11.345
こ	-11.3462
如	-11.3463
샨	-11.3469
さ	-11.3473
뤄	-11.3484
用	-11.3487
良	-11.3488
音	-11.3499
К	-11.3549
헝	-11.3552
맵	-11.3552
節	-11.3567
派	-11.3571
『	-11.3578
픔	-11.3583
說	-11.3604
み	-11.3605
タ	-11.3613
줌	-11.364
語	-11.3648
郞	-11.3651
シ	-11.3651
康	-11.3663
몸	-11.3664
曹	-11.367
貞	-11.3674
댓	-11.3686
言	-11.3693
멕	-11.3701
з	-11.3709
뀐	-11.3732
넓	-11.3736
造	-11.3744
ち	-11.3748
浦	-11.3755
앓	-11.3779
阿	-11.3794
土	-11.3798
多	-11.3817
在	-11.3855
智	-11.3864
應	-11.3872
ド	-11.3927
界	-11.3937
開	-11.4006
初	-11.401
밋	-11.4042
σ	-11.4078
號	-11.4094
侍	-11.4118
歌	-11.413
式	-11.415
泰	-11.4166
が	-11.4166
벅	-11.4195
實	-11.4195
뮌	-11.4207
붐	-11.4219
族	-11.4267
β	-11.4276
口	-11.4276
對	-11.428
出	-11.4287
끝	-11.4289
佐	-11.43
流	-11.4324
멧	-11.4341
奉	-11.437
修	-11.4374
典	-11.4415
務	-11.4419
形	-11.4424
常	-11.4431
쓸	-11.4473
寶	-11.4482
愛	-11.4498
슭	-11.4498
憲	-11.4503
副	-11.4507
κ	-11.4507
進	-11.4523
헥	-11.4536
엥	-11.4574
意	-11.459
꼈	-11.4595
壽	-11.4616
х	-11.462
七	-11.4624
갇	-11.4658
귄	-11.4658
省	-11.4705
홈	-11.4712
숨	-11.4721
촨	-11.4752
戰	-11.476
臺	-11.4777
鮮	-11.4777
찍	-11.4789
千	-11.4795
팟	-11.4842
풋	-11.4846
唐	-11.4851
吳	-11.4851
괘	-11.4859
梁	-11.4872
來	-11.4875
賢	-11.4885
て	-11.4885
è	-11.4898
В	-11.4898
弘	-11.4907
處	-11.4914
팝	-11.494
后	-11.4946
낫	-11.4946
申	-11.4968
伊	-11.5003
故	-11.5011
識	-11.5012
딪	-11.5012
風	-11.502
志	-11.5024
車	-11.5029
あ	-11.5077
М	-11.5087
以	-11.5091
젊	-11.5093
깐	-11.51
受	-11.5113
工	-11.5113
엿	-11.5113
位	-11.513
줘	-11.5131
先	-11.5144
園	-11.5144
@	-11.518
랏	-11.5184
뛰	-11.5236
解	-11.5242
マ	-11.5256
非	-11.5284
老	-11.5342
想	-11.5364
錄	-11.5428
뒀	-11.5428
몫	-11.5451
“	-11.5453
敬	-11.5465
ة	-11.5479
맑	-11.5497
셴	-11.5502
学	-11.5516
렵	-11.5518
팍	-11.553
橋	-11.5534
我	-11.5607
튬	-11.5627
얽	-11.5655
秀	-11.566
任	-11.5664
右	-11.5669
ت	-11.5669
内	-11.5688
멤	-11.5702
ジ	-11.5716
達	-11.5726
눠	-11.573
좋	-11.5734
勝	-11.5768
護	-11.5801
긍	-11.5806
力	-11.583
ú	-11.583
レ	-11.5835
뻔	-11.5839
諸	-11.5842
닦	-11.5849
能	-11.5857
ع	-11.5873
뚱	-11.5878
甲	-11.5882
멈	-11.5882
냉	-11.5899
次	-11.5909
ч	-11.5926
陳	-11.594
깎	-11.5959
찔	-11.5959
<	-11.5969
ی	-11.5969
캅	-11.5983
>	-11.6003
뭇	-11.6003
써	-11.6006
カ	-11.6017
à	-11.6017
텝	-11.6027
詩	-11.6032
찮	-11.6032
加	-11.6041
펩	-11.6042
쟈	-11.6071
數	-11.6085
豊	-11.6086
앰	-11.6086
γ	-11.6125
걀	-11.6144
봄	-11.6151
윅	-11.6154
챔	-11.6179
運	-11.6198
百	-11.6208
ᆯ	-11.6208
삐	-11.6208
곶	-11.6228
頭	-11.6253
`	-11.6273
갖	-11.6284
붉	-11.6311
ロ	-11.6338
延	-11.6383
핏	-11.6398
つ	-11.6418
ᆡ	-11.6434
η	-11.6449
員	-11.6459
끗	-11.6459
塔	-11.6474
參	-11.6484
숲	-11.6495
ᄃ	-11.651
맏	-11.654
目	-11.655
맷	-11.6618
찐	-11.6628
팰	-11.6628
反	-11.6653
챙	-11.6664
뻐	-11.6679
쵸	-11.67
슛	-11.6716
徐	-11.6721
溪	-11.6742
า	-11.6747
뱃	-11.6757
☆	-11.6763
촐	-11.6773
캣	-11.6773
爲	-11.6775
得	-11.6778
옳	-11.6794
現	-11.6815
섀	-11.6831
關	-11.6836
쭉	-11.6841
씌	-11.6857
넛	-11.6857
玄	-11.6878
П	-11.6921
왼	-11.6926
π	-11.6931
횡	-11.6938
朱	-11.6969
쩌	-11.6969
異	-11.6972
ᄂ	-11.6979
—	-11.6979
フ	-11.6985
齋	-11.7022
펼	-11.7037
起	-11.7044
낚	-11.7049
雄	-11.706
も	-11.7075
藏	-11.7103
夏	-11.7103
久	-11.7114
碑	-11.7119
岩	-11.7119
機	-11.7146
ᆫ	-11.7146
密	-11.7168
볍	-11.719
렝	-11.7201
居	-11.7216
똑	-11.7222
沈	-11.7233
ه	-11.7234
딧	-11.7261
냄	-11.7278
얕	-11.73
楊	-11.731
늑	-11.7327
富	-11.7333
ح	-11.7333
湖	-11.7338
香	-11.7355
泉	-11.7355
쾰	-11.7361
電	-11.7372
욘	-11.7388
竹	-11.7394
Б	-11.7422
냅	-11.7422
ा	-11.7439
す	-11.7439
샐	-11.7444
草	-11.7455
岡	-11.7455
だ	-11.7461
궈	-11.7495
Р	-11.7506
印	-11.7512
땃	-11.7512
ç	-11.7523
察	-11.7528
●	-11.754
火	-11.7551
統	-11.7551
キ	-11.7557
숀	-11.7557
益	-11.7567
可	-11.7574
手	-11.758
뭄	-11.7597
탬	-11.7619
뫼	-11.7636
쉴	-11.7648
因	-11.7653
遠	-11.7664
헛	-11.7665
儀	-11.7676
푹	-11.7688
遺	-11.7699
ш	-11.7699
靈	-11.7717
«	-11.774
슌	-11.7763
펭	-11.7763
뮈	-11.778
管	-11.7791
뜬	-11.7803
嘉	-11.7826
і	-11.7832
쾨	-11.7832
ί	-11.7844
鳳	-11.785
從	-11.7855
씬	-11.7867
ц	-11.7867
딥	-11.7867
氣	-11.7873
麗	-11.7879
亭	-11.7879
男	-11.7908
紀	-11.792
ร	-11.7926
―	-11.7961
じ	-11.7961
境	-11.7978
엮	-11.7985
훙	-11.7991
器	-11.7996
少	-11.8025
싹	-11.8044
宇	-11.805
禪	-11.8056
伯	-11.8062
귤	-11.8062
系	-11.8062
入	-11.8085
옆	-11.8087
秋	-11.8098
랬	-11.8098
쩔	-11.8098
支	-11.8127
祭	-11.8134
탭	-11.8134
■	-11.8146
믈	-11.8146
་	-11.8146
許	-11.8158
領	-11.8199
報	-11.82
結	-11.8201
ᄅ	-11.8206
容	-11.8211
波	-11.8212
ñ	-11.8224
י	-11.8224
錫	-11.823
池	-11.823
を	-11.8259
母	-11.8265
듐	-11.8266
團	-11.8272
果	-11.8278
깜	-11.8279
웍	-11.8303
돗	-11.8315
商	-11.8321
榮	-11.8327
沙	-11.834
取	-11.8346
熙	-11.8395
や	-11.8438
姜	-11.8456
뾰	-11.8457
烈	-11.8469
類	-11.8493
よ	-11.8525
쿡	-11.8531
렙	-11.8544
丁	-11.8569
産	-11.8569
室	-11.8574
資	-11.8575
떠	-11.8584
챈	-11.8594
굉	-11.8606
꿨	-11.8613
昭	-11.8649
흉	-11.8657
녜	-11.8663
낮	-11.8669
Н	-11.8695
홋	-11.8707
»	-11.872
術	-11.8727
갯	-11.8727
쁨	-11.8733
調	-11.8739
是	-11.8747
숫	-11.8754
낄	-11.8765
オ	-11.8771
鐵	-11.8777
잼	-11.8784
췌	-11.8797
提	-11.8816
也	-11.8821
若	-11.8826
ά	-11.8842
死	-11.8842
っ	-11.8842
恩	-11.8861
겟	-11.8861
植	-11.8868
品	-11.8892
コ	-11.89
交	-11.8906
鄕	-11.8919
눔	-11.8919
倉	-11.8926
え	-11.8926
댈	-11.8939
ᄀ	-11.8939
늙	-11.9011
俊	-11.9017
テ	-11.9043
큘	-11.9043
共	-11.905
â	-11.9063
δ	-11.9089
퓌	-11.9089
れ	-11.9109
發	-11.9115
墓	-11.9116
샵	-11.9116
뭐	-11.9129
戦	-11.9142
役	-11.9162
局	-11.9175
샷	-11.9216
黨	-11.9222
で	-11.9249
坐	-11.9269
윌	-11.9276
ム	-11.9276
्	-11.9283
晉	-11.9283
越	-11.9288
삿	-11.9289
父	-11.9303
뻗	-11.9322
υ	-11.9323
表	-11.933
숍	-11.933
뮐	-11.9337
台	-11.9343
갚	-11.9343
始	-11.935
總	-11.9384
慧	-11.939
曲	-11.9398
わ	-11.9411
껏	-11.9432
췄	-11.9432
ナ	-11.9445
릅	-11.9445
꽂	-11.9459
싣	-11.9459
ج	-11.9473
邊	-11.95
र	-11.9548
柱	-11.9549
썩	-11.9562
쿰	-11.9576
今	-11.9589
ニ	-11.959
깁	-11.9597
찢	-11.9611
崇	-11.9631
バ	-11.9632
즙	-11.9639
其	-11.9642
惠	-11.9645
룻	-11.9667
늪	-11.9667
博	-11.9667
퀼	-11.9674
姓	-11.9687
몹	-11.9702
情	-11.9709
볶	-11.9716
秦	-11.9716
連	-11.9743
짚	-11.9751
彦	-11.9751
늦	-11.9772
而	-11.979
貴	-11.9793
閣	-11.98
^	-11.98
營	-11.9807
ズ	-11.9814
尊	-11.9828
덮	-11.9832
魏	-11.9843
ف	-11.9843
陸	-11.9871
角	-11.9879
グ	-11.9886
맬	-11.9886
ィ	-11.9893
畵	-11.99
짖	-11.9907
š	-11.9921
ê	-11.995
育	-11.9965
足	-11.9971
執	-11.9979
觸	-11.9986
～	-12.0008
뜸	-12.0015
곧	-12.0024
ə	-12.0037
港	-12.0037
於	-12.0049
ό	-12.0073
防	-12.0095
ょ	-12.0095
喜	-12.011
ق	-12.0117
鍾	-12.0124
特	-12.0131
魚	-12.0132
赤	-12.0168
種	-12.0175
ß	-12.0176
け	-12.0183
Г	-12.0183
覺	-12.019
極	-12.019
ウ	-12.019
妃	-12.0197
緣	-12.0198
쪼	-12.0205
촬	-12.0212
É	-12.0242
넉	-12.0242
念	-12.0249
至	-12.0256
ω	-12.0257
괌	-12.0264
咸	-12.0272
期	-12.0272
뇽	-12.0272
住	-12.0301
밧	-12.0301
首	-12.0324
〜	-12.0331
뵈	-12.0331
試	-12.0339
陰	-12.0339
友	-12.0345
由	-12.0361
葉	-12.0376
球	-12.0384
房	-12.0384
쩐	-12.0391
엡	-12.0391
챌	-12.0391
卿	-12.0414
群	-12.0421
舍	-12.0428
뜰	-12.0429
銀	-12.0444
比	-12.0452
ャ	-12.0474
件	-12.0474
仙	-12.0482
齊	-12.0497
瑞	-12.0512
꽝	-12.0512
젯	-12.0512
變	-12.0535
近	-12.0541
뽀	-12.0543
会	-12.0558
屋	-12.0566
샴	-12.0573
崎	-12.0573
씻	-12.0581
ブ	-12.0604
半	-12.0604
丘	-12.0612
ı	-12.0619
薩	-12.0627
팥	-12.0642
廳	-12.0658
ᄋ	-12.0673
仲	-12.0673
顯	-12.0681
農	-12.0712
屬	-12.072
尉	-12.0735
뿜	-12.0743
船	-12.0759
퀀	-12.0774
촛	-12.0774
隆	-12.0782
Д	-12.0798
盧	-12.0798
썰	-12.0798
プ	-12.0813
圓	-12.0829
致	-12.0845
エ	-12.0853
′	-12.0853
賀	-12.0853
ノ	-12.0868
밑	-12.0877
蘇	-12.0884
엎	-12.0884
ش	-12.0892
虎	-12.0892
굶	-12.09
サ	-12.0916
戶	-12.0916
잣	-12.0916
恭	-12.0924
清	-12.0932
乙	-12.0947
隨	-12.0954
吏	-12.0963
丹	-12.0979
ミ	-12.0987
€	-12.0987
핼	-12.0995
要	-12.0995
△	-12.1003
똥	-12.1011
条	-12.1027
尾	-12.1035
職	-12.1059
괜	-12.106
뇰	-12.1068
牧	-12.1068
퀄	-12.1076
復	-12.1088
律	-12.1092
区	-12.1092
앨	-12.1095
象	-12.1108
ひ	-12.1123
ô	-12.1124
求	-12.1132
떤	-12.1136
蓮	-12.114
協	-12.1173
훤	-12.1173
롄	-12.1181
鶴	-12.1205
普	-12.1205
區	-12.1221
菩	-12.123
옛	-12.1256
킵	-12.1262
츰	-12.1271
チ	-12.1279
隊	-12.1337
켐	-12.137
未	-12.1377
벚	-12.1378
듭	-12.1399
邑	-12.1418
峰	-12.1436
น	-12.1436
署	-12.1453
ダ	-12.1461
パ	-12.1478
庵	-12.1478
빽	-12.1478
ī	-12.1486
챠	-12.1486
낯	-12.1486
욤	-12.1486
完	-12.1494
←	-12.1503
素	-12.1511
뜯	-12.1512
則	-12.1526
ж	-12.1528
奇	-12.1571
衆	-12.1578
巖	-12.1579
苦	-12.1579
惡	-12.1586
팻	-12.1587
羽	-12.1587
衣	-12.1612
츨	-12.1613
탔	-12.1613
И	-12.163
哲	-12.1655
꼼	-12.1664
밈	-12.1664
戸	-12.1664
板	-12.1673
멩	-12.1673
禁	-12.1681
然	-12.1697
約	-12.1698
촘	-12.1698
依	-12.1723
ו	-12.1733
層	-12.1733
О	-12.1733
藩	-12.1758
刑	-12.1792
靖	-12.1793
洋	-12.1793
윽	-12.1802
ᄉ	-12.1802
쥘	-12.181
域	-12.1827
땀	-12.1836
放	-12.1844
輔	-12.1844
Т	-12.1871
滅	-12.1871
載	-12.1879
改	-12.1879
精	-12.1888
向	-12.1915
꿰	-12.1923
欲	-12.1929
淑	-12.1932
県	-12.1959
督	-12.1967
깅	-12.1967
퓰	-12.1967
ك	-12.1976
슝	-12.1985
ュ	-12.1994
呂	-12.2003
範	-12.202
持	-12.2029
陀	-12.2029
嚴	-12.2046
質	-12.2046
證	-12.2056
ガ	-12.2056
淨	-12.2082
쑨	-12.2091
翼	-12.2109
溫	-12.2118
탤	-12.2127
튠	-12.2145
힙	-12.2154
樞	-12.2154
θ	-12.2163
せ	-12.2163
那	-12.2172
벙	-12.2172
澤	-12.219
둬	-12.219
毛	-12.2199
獻	-12.2216
둡	-12.2226
ա	-12.2235
斗	-12.2244
デ	-12.228
臨	-12.2298
純	-12.2316
淵	-12.2334
當	-12.2341
私	-12.2343
젓	-12.2344
ˈ	-12.2353
낡	-12.2353
問	-12.2361
ã	-12.2362
留	-12.2389
캇	-12.239
껑	-12.2399
聲	-12.2408
助	-12.2408
具	-12.2408
舞	-12.2408
養	-12.2417
딤	-12.2417
布	-12.2426
轉	-12.2426
メ	-12.2426
놉	-12.2436
댕	-12.2436
쥔	-12.2445
텅	-12.2463
僧	-12.2473
聞	-12.2481
盛	-12.2482
ز	-12.2491
勳	-12.2491
曰	-12.2524
徳	-12.2528
淳	-12.2538
쉰	-12.2547
麻	-12.2556
真	-12.2575
썸	-12.2584
訓	-12.2594
贊	-12.2612
眼	-12.2612
웜	-12.2622
座	-12.2641
食	-12.2659
헴	-12.2669
뎀	-12.2678
舊	-12.2687
훗	-12.2726
備	-12.2726
젬	-12.2726
댁	-12.2726
離	-12.2743
ł	-12.2754
ハ	-12.2773
燕	-12.2782
珍	-12.2792
蔡	-12.2812
샌	-12.2829
랠	-12.284
雨	-12.2869
め	-12.2878
誠	-12.2897
狀	-12.2898
兒	-12.2898
彌	-12.2907
森	-12.2917
±	-12.2917
坂	-12.2927
樹	-12.2927
壇	-12.2937
郭	-12.2937
칫	-12.2937
왁	-12.2946
罪	-12.2966
鳥	-12.2966
牛	-12.2976
藝	-12.2995
탠	-12.3009
茂	-12.3024
얌	-12.3054
浩	-12.3073
莊	-12.3093
꿉	-12.3093
何	-12.3097
廟	-12.3101
싫	-12.3102
告	-12.3141
好	-12.3162
為	-12.3178
좀	-12.3181
멱	-12.3182
丸	-12.3192
蘭	-12.3192
劇	-12.3222
첫	-12.3252
웹	-12.3262
慈	-12.3272
夢	-12.3322
좡	-12.3322
選	-12.3332
均	-12.3332
앳	-12.3342
ろ	-12.3342
쿵	-12.3352
뭔	-12.3362
팎	-12.3383
号	-12.3403
祠	-12.3423
項	-12.3423
뱌	-12.3444
允	-12.3444
計	-12.3453
檢	-12.3454
낀	-12.3464
ר	-12.3464
量	-12.3464
沢	-12.3474
⁄	-12.3495
準	-12.3505
ば	-12.3516
警	-12.3526
兼	-12.3536
旨	-12.3546
希	-12.3546
己	-12.3566
獨	-12.3567
飛	-12.3587
戒	-12.3607
쑹	-12.3608
列	-12.3619
與	-12.3638
望	-12.3639
靜	-12.3639
料	-12.3681
ი	-12.3681
害	-12.3691
財	-12.3713
깡	-12.3723
酒	-12.3723
ビ	-12.3733
쏜	-12.3733
餘	-12.3741
亞	-12.3744
ה	-12.3744
魯	-12.3754
隱	-12.3755
ː	-12.3765
뮴	-12.3765
閔	-12.3765
射	-12.3797
此	-12.3826
ệ	-12.385
Δ	-12.3882
ど	-12.3892
于	-12.3902
훅	-12.3903
Л	-12.3903
細	-12.3913
煥	-12.3924
ა	-12.3935
쏠	-12.3946
岳	-12.3956
震	-12.3967
回	-12.3978
惱	-12.3987
綱	-12.401
考	-12.402
貪	-12.4031
補	-12.4032
龜	-12.4054
夜	-12.4075
胡	-12.4075
儒	-12.4086
Đ	-12.4119
製	-12.413
э	-12.4163
帶	-12.4163
맡	-12.4183
格	-12.4184
č	-12.4184
ć	-12.4195
斷	-12.4205
醫	-12.4206
型	-12.4217
쐐	-12.4217
青	-12.4251
冠	-12.4261
찻	-12.4262
鏡	-12.4295
ū	-12.4295
モ	-12.4295
指	-12.4306
ゃ	-12.4306
封	-12.4315
갸	-12.4317
툭	-12.4328
큼	-12.4355
剛	-12.4361
梅	-12.4362
聯	-12.4373
亂	-12.4381
設	-12.4383
꽁	-12.4395
孔	-12.4407
넴	-12.4407
짠	-12.4418
뜻	-12.4435
쉘	-12.4452
캥	-12.4452
嶺	-12.4463
紅	-12.4485
委	-12.4497
威	-12.4507
많	-12.4542
洙	-12.4542
桂	-12.4554
末	-12.4564
摩	-12.4575
ư	-12.4576
奎	-12.4588
演	-12.4588
έ	-12.4588
速	-12.4599
ᄆ	-12.4622
寅	-12.4633
登	-12.4633
낱	-12.4634
닙	-12.4634
칵	-12.4657
易	-12.4679
服	-12.469
ม	-12.4703
增	-12.4713
雅	-12.4726
錦	-12.4726
洛	-12.4738
究	-12.4749
돛	-12.4761
端	-12.4772
址	-12.4784
茶	-12.4796
윔	-12.4808
規	-12.4808
兩	-12.4819
謙	-12.4819
א	-12.4819
먀	-12.4819
்	-12.4831
뀔	-12.4843
퍽	-12.4843
辰	-12.4854
渡	-12.4854
過	-12.4877
最	-12.4878
祿	-12.4889
請	-12.4901
央	-12.4913
邪	-12.4913
敏	-12.4934
辛	-12.4949
肅	-12.4961
ط	-12.4961
克	-12.4984
影	-12.4984
客	-12.4984
ก	-12.4996
ᇰ	-12.4996
夷	-12.5008
技	-12.5008
쓴	-12.5009
裕	-12.502
消	-12.502
솥	-12.5032
葛	-12.5044
อ	-12.5056
廷	-12.5091
妙	-12.5092
深	-12.5092
話	-12.5104
雙	-12.5104
ى	-12.5104
ø	-12.5128
釋	-12.5128
滿	-12.514
핌	-12.5152
奈	-12.5164
續	-12.5165
汝	-12.5174
잖	-12.5177
藥	-12.5177
烏	-12.5189
祥	-12.52
輪	-12.5201
圭	-12.5201
穆	-12.5225
譜	-12.5225
썹	-12.5225
組	-12.5225
욜	-12.5237
恒	-12.5249
ツ	-12.525
切	-12.5274
珠	-12.5274
孟	-12.5286
點	-12.5286
뺏	-12.5311
캬	-12.5311
そ	-12.5311
尼	-12.5348
낌	-12.536
φ	-12.536
덥	-12.5373
関	-12.5385
ל	-12.541
厚	-12.5434
略	-12.5434
ย	-12.5435
쨌	-12.5447
룀	-12.546
幸	-12.5485
땐	-12.5485
際	-12.5496
庫	-12.551
健	-12.551
單	-12.551
เ	-12.5522
ή	-12.5522
ョ	-12.5547
銅	-12.5559
ิ	-12.556
뎅	-12.556
債	-12.5572
遊	-12.5585
乾	-12.5585
أ	-12.5585
黑	-12.5585
宰	-12.5597
旗	-12.5623
쩍	-12.5636
失	-12.5647
ᅵ	-12.5648
힉	-12.5661
病	-12.5674
宿	-12.5687
ύ	-12.5687
찾	-12.572
弼	-12.5725
爾	-12.5737
껴	-12.5737
□	-12.574
宜	-12.575
啓	-12.575
講	-12.5751
눕	-12.5751
決	-12.5763
環	-12.5776
願	-12.5776
晋	-12.5789
팁	-12.5789
丞	-12.5789
止	-12.5828
‧	-12.5828
몄	-12.5828
ф	-12.5828
ぐ	-12.5853
脫	-12.5892
杜	-12.5906
散	-12.5919
갠	-12.5932
ă	-12.5932
न	-12.5932
쑥	-12.5932
雪	-12.5932
宅	-12.5945
勢	-12.5958
セ	-12.5971
ᆷ	-12.5971
ゅ	-12.5972
送	-12.5985
樓	-12.5998
騎	-12.6011
盟	-12.6011
歸	-12.6035
亨	-12.6037
祐	-12.6037
題	-12.6037
ᅳ	-12.6064
걱	-12.6077
假	-12.609
魔	-12.609
خ	-12.6117
甫	-12.6117
煩	-12.6129
超	-12.613
介	-12.6144
丙	-12.6168
米	-12.617
季	-12.6183
Α	-12.6184
ᄌ	-12.6184
洲	-12.6197
難	-12.6211
誌	-12.6224
ゆ	-12.6224
ë	-12.6224
贈	-12.6237
卷	-12.6265
岐	-12.6305
샛	-12.6305
넙	-12.6319
站	-12.6332
積	-12.636
叔	-12.636
童	-12.6373
鉉	-12.6387
敦	-12.64
昇	-12.6401
弟	-12.6441
폈	-12.6442
ワ	-12.6456
僉	-12.6456
句	-12.6469
ั	-12.647
他	-12.6483
殺	-12.6497
麟	-12.6497
骨	-12.6511
裵	-12.6511
巨	-12.6511
契	-12.6538
慕	-12.6552
ि	-12.6567
翰	-12.658
征	-12.6581
乘	-12.6594
筆	-12.6594
ケ	-12.6595
革	-12.6595
★	-12.6609
衡	-12.6623
瀬	-12.6623
뺨	-12.6637
옙	-12.6637
教	-12.6637
끌	-12.6641
む	-12.665
納	-12.665
吾	-12.6663
ᄇ	-12.6665
쥰	-12.6665
摠	-12.6678
Ф	-12.6679
넵	-12.6679
版	-12.6679
曺	-12.6693
콴	-12.6693
됩	-12.6693
庭	-12.6707
倭	-12.6735
感	-12.675
म	-12.6764
ส	-12.6764
諫	-12.6776
َ	-12.6806
뛴	-12.6806
振	-12.6807
鬼	-12.6821
늠	-12.6821
£	-12.6821
僕	-12.6833
釜	-12.6835
텡	-12.6835
郷	-12.6835
籍	-12.6863
休	-12.6864
鹿	-12.6864
惟	-12.6878
်	-12.6892
俗	-12.6907
漏	-12.6936
株	-12.6936
施	-12.6964
軒	-12.6978
ふ	-12.6993
æ	-12.7023
刺	-12.7023
熊	-12.7023
愼	-12.7037
邦	-12.7037
紫	-12.7052
쭈	-12.7052
及	-12.7064
須	-12.7067
擧	-12.7067
置	-12.708
懿	-12.7081
텟	-12.7081
雜	-12.7095
웁	-12.7096
簡	-12.7125
桓	-12.7125
ェ	-12.7125
塚	-12.714
鉄	-12.717
広	-12.717
限	-12.7185
繼	-12.7199
遼	-12.7199
坊	-12.7199
Π	-12.7214
숄	-12.7214
秉	-12.7229
般	-12.7229
勇	-12.7229
逸	-12.7244
땡	-12.7244
将	-12.7244
存	-12.7259
固	-12.7259
曆	-12.7259
必	-12.7271
쎄	-12.7274
녁	-12.7287
鑑	-12.7289
炳	-12.7304
策	-12.7334
ō	-12.7349
街	-12.7349
ง	-12.7379
遇	-12.7408
追	-12.7409
봅	-12.741
浜	-12.7425
落	-12.744
ボ	-12.7455
া	-12.7455
쉼	-12.7455
賜	-12.7469
銘	-12.747
ず	-12.747
紙	-12.7486
ð	-12.7486
꼰	-12.7486
χ	-12.7486
ぶ	-12.7486
뽕	-12.7501
引	-12.7501
兄	-12.7501
蘊	-12.7516
ी	-12.7516
耳	-12.7531
亦	-12.7556
쇤	-12.7562
寬	-12.7578
襄	-12.7578
뎌	-12.7578
還	-12.7592
旅	-12.7593
扶	-12.7609
勞	-12.7609
乃	-12.7624
再	-12.7624
숏	-12.764
ё	-12.764
琴	-12.764
뺀	-12.7671
鎬	-12.7671
了	-12.7685
注	-12.7686
ほ	-12.7686
Κ	-12.7686
퀵	-12.7686
斯	-12.7686
禹	-12.7702
邱	-12.7718
翁	-12.7733
詞	-12.7733
У	-12.7749
推	-12.7764
ю	-12.778
阮	-12.778
甘	-12.7812
읊	-12.7812
蒙	-12.7812
習	-12.7827
볕	-12.7843
才	-12.7858
씹	-12.7875
딛	-12.7891
織	-12.7891
룹	-12.7898
廉	-12.7939
皮	-12.7939
Х	-12.7939
펨	-12.7939
效	-12.7955
蓋	-12.7971
終	-12.7984
눅	-12.8003
刻	-12.8019
꿇	-12.8019
ב	-12.8035
懷	-12.8051
欽	-12.8051
ş	-12.8051
配	-12.8067
त	-12.8068
奴	-12.8082
庶	-12.8083
編	-12.8083
硏	-12.8084
ص	-12.81
程	-12.8116
Σ	-12.8133
峴	-12.8133
虛	-12.8148
ท	-12.8149
뛸	-12.8182
팸	-12.8182
芳	-12.8198
刀	-12.8198
맙	-12.8198
維	-12.8198
染	-12.8228
眠	-12.8245
浮	-12.8247
क	-12.8264
짤	-12.8314
亮	-12.8314
힝	-12.833
簿	-12.8346
輝	-12.8347
냇	-12.8347
ァ	-12.8363
熱	-12.838
웡	-12.838
頼	-12.838
序	-12.8396
ว	-12.8397
뱉	-12.843
徒	-12.843
磨	-12.843
줍	-12.8464
梵	-12.848
ご	-12.8481
깬	-12.8498
홑	-12.8498
潤	-12.8515
ն	-12.8515
ᄒ	-12.8548
מ	-12.8549
젼	-12.8566
陶	-12.86
血	-12.8616
巡	-12.8617
姬	-12.8617
댑	-12.8617
活	-12.8634
灣	-12.8634
蔵	-12.8634
刊	-12.8651
盤	-12.8667
旌	-12.8668
긁	-12.8668
횃	-12.8668
깍	-12.8703
賓	-12.872
差	-12.872
웸	-12.872
꽉	-12.8737
튿	-12.8737
構	-12.8755
텃	-12.8772
燮	-12.8772
寫	-12.8824
耶	-12.8841
楚	-12.8859
ี	-12.8859
移	-12.8859
被	-12.8876
賞	-12.8877
背	-12.8912
卞	-12.893
춧	-12.893
実	-12.893
殷	-12.8947
幕	-12.8965
묻	-12.8971
ơ	-12.9
嬪	-12.9018
뉜	-12.9036
З	-12.9036
黎	-12.9036
å	-12.9054
視	-12.9072
忍	-12.9072
万	-12.9072
ე	-12.9072
諦	-12.9072
ล	-12.909
坡	-12.909
떻	-12.9108
켤	-12.9108
स	-12.9126
솝	-12.9126
宝	-12.9126
疑	-12.9126
씽	-12.9162
晩	-12.918
奏	-12.9198
露	-12.9198
黒	-12.9216
毅	-12.9234
ポ	-12.9253
專	-12.9271
ピ	-12.9289
譯	-12.9307
航	-12.9307
番	-12.9307
映	-12.9307
率	-12.9326
翊	-12.9344
犯	-12.9344
匡	-12.9362
ש	-12.9363
秘	-12.9363
味	-12.9381
ネ	-12.9399
優	-12.9399
Á	-12.9418
鐘	-12.9418
豆	-12.9418
去	-12.9436
收	-12.9436
舌	-12.9437
照	-12.9455
述	-12.9474
ē	-12.9474
폄	-12.9492
干	-12.9511
ک	-12.9511
鼎	-12.9528
歷	-12.9529
峯	-12.9529
午	-12.9529
찹	-12.953
庄	-12.9567
症	-12.9567
ベ	-12.9567
掌	-12.9585
査	-12.9586
標	-12.9586
ý	-12.9605
貫	-12.9605
व	-12.9605
勤	-12.9605
云	-12.9614
壬	-12.9624
챕	-12.9624
찼	-12.9643
휼	-12.9662
栗	-12.9681
彼	-12.9689
菜	-12.97
∙	-12.97
븀	-12.97
階	-12.9718
導	-12.9719
壤	-12.9719
ソ	-12.9719
伏	-12.9719
Е	-12.9738
ᅥ	-12.9738
爭	-12.9757
候	-12.9757
肉	-12.9757
倫	-12.9776
湯	-12.9776
磁	-12.9776
獄	-12.9796
▲	-12.9796
給	-12.9815
뻘	-12.9815
喪	-12.9815
岸	-12.9834
案	-12.9834
瞋	-12.9853
迦	-12.9853
阪	-12.9873
ゴ	-12.9892
步	-12.9893
ต	-12.9912
冬	-12.993
楽	-12.9931
婦	-12.995
段	-12.997
彩	-12.999
評	-12.999
뢴	-12.999
귈	-12.999
謂	-13.0001
附	-13.001
勒	-13.001
눗	-13.001
賊	-13.0027
碩	-13.0029
ོ	-13.0029
쏴	-13.0029
示	-13.0049
俱	-13.0085
ᄡ	-13.0089
【	-13.0089
模	-13.0108
뎃	-13.0109
Ö	-13.0109
솅	-13.0109
経	-13.0109
破	-13.0109
辭	-13.0128
疏	-13.0128
】	-13.0148
慢	-13.0149
算	-13.0168
畿	-13.0188
뎬	-13.0188
鳴	-13.0208
빡	-13.0208
堅	-13.0227
랗	-13.0228
ヤ	-13.0249
낵	-13.0249
弓	-13.0269
뤽	-13.0309
ž	-13.0309
庚	-13.033
便	-13.035
妻	-13.0369
揚	-13.037
伽	-13.037
帥	-13.037
来	-13.037
癡	-13.037
뒷	-13.0395
退	-13.0431
ल	-13.0431
윳	-13.0452
─	-13.0452
梨	-13.0452
泳	-13.0452
浪	-13.0472
停	-13.0473
ր	-13.0473
菊	-13.0473
坪	-13.0493
ね	-13.0493
壁	-13.0493
얘	-13.051
舜	-13.0514
錢	-13.0514
뜩	-13.0514
맴	-13.0514
嗣	-13.0535
쌈	-13.0535
غ	-13.0555
歲	-13.0572
ุ	-13.0576
曾	-13.0576
総	-13.0618
裁	-13.0639
び	-13.0639
얏	-13.0639
墨	-13.0639
젱	-13.0639
障	-13.0659
撫	-13.068
द	-13.0681
顔	-13.0681
葬	-13.0701
凉	-13.0702
片	-13.0702
綠	-13.0702
著	-13.0722
接	-13.0722
々	-13.0723
稅	-13.0744
紋	-13.0744
ò	-13.0744
נ	-13.0744
讓	-13.0765
प	-13.0765
兪	-13.0765
訴	-13.0765
쩡	-13.0765
햐	-13.0765
杉	-13.0765
除	-13.0782
脈	-13.0786
撰	-13.0807
ד	-13.0808
잰	-13.0808
豫	-13.0808
鈴	-13.0808
Μ	-13.0829
ར	-13.0829
찜	-13.0829
愚	-13.0829
已	-13.0848
幹	-13.0872
絶	-13.0872
潭	-13.0893
ế	-13.0893
륀	-13.0893
텁	-13.0893
พ	-13.0936
授	-13.0957
幡	-13.0958
꺽	-13.0958
뷜	-13.0958
矢	-13.0958
墳	-13.0979
ù	-13.098
ヶ	-13.098
早	-13.098
貢	-13.1001
ת	-13.1001
援	-13.1023
羊	-13.1023
쟝	-13.1023
鼓	-13.1023
各	-13.1043
微	-13.1045
ु	-13.1045
謝	-13.1045
逆	-13.1067
例	-13.1087
劍	-13.1088
降	-13.1089
油	-13.1089
頂	-13.111
睦	-13.1131
튕	-13.1132
챗	-13.1154
横	-13.1154
桃	-13.1176
앎	-13.1177
伝	-13.1177
祚	-13.1199
芝	-13.1199
享	-13.122
ј	-13.1221
읽	-13.1228
่	-13.1243
輸	-13.1243
셍	-13.1243
供	-13.1288
燈	-13.131
辨	-13.131
Ш	-13.131
占	-13.1332
ホ	-13.1332
ザ	-13.1332
徽	-13.1332
푀	-13.1332
됭	-13.1377
ช	-13.14
꿩	-13.14
댜	-13.14
춥	-13.14
損	-13.1423
陣	-13.1423
唯	-13.1444
寒	-13.1445
鴻	-13.1445
亥	-13.1445
묀	-13.1445
急	-13.1468
헵	-13.1468
尋	-13.1491
ด	-13.1491
讀	-13.1491
ּ	-13.1491
胤	-13.1513
符	-13.1514
놔	-13.1514
級	-13.1536
奥	-13.1559
権	-13.1559
†	-13.1559
裝	-13.1559
რ	-13.1559
랸	-13.1559
쌓	-13.1576
Λ	-13.1582
廢	-13.1605
篇	-13.1605
莫	-13.1627
へ	-13.165
ぎ	-13.1651
횟	-13.1673
價	-13.1675
帖	-13.1675
酉	-13.1698
紹	-13.1698
숯	-13.1698
哀	-13.1721
鬪	-13.1745
展	-13.1745
救	-13.1745
ğ	-13.1745
탸	-13.1745
堀	-13.1768
操	-13.1792
壯	-13.1792
쭤	-13.1792
蹟	-13.1815
Ε	-13.1815
้	-13.1815
ạ	-13.1815
匠	-13.1815
잿	-13.1815
恋	-13.1815
審	-13.1838
뵤	-13.1839
卯	-13.1862
捨	-13.1862
य	-13.1862
姫	-13.1862
좇	-13.1862
沼	-13.1862
貨	-13.1886
創	-13.191
稱	-13.191
韻	-13.1934
Ч	-13.1958
げ	-13.1982
巴	-13.1982
袁	-13.1982
์	-13.2006
孤	-13.2006
蔚	-13.2006
ָ	-13.203
떴	-13.203
材	-13.203
仕	-13.2051
굼	-13.2054
駐	-13.2054
伐	-13.2054
包	-13.2078
헹	-13.2078
舟	-13.2078
惑	-13.2102
鼻	-13.2126
뽐	-13.2151
談	-13.2151
沖	-13.2173
巳	-13.2175
敵	-13.2175
抗	-13.2197
佑	-13.2199
唱	-13.2199
箕	-13.2224
ᄎ	-13.2224
흄	-13.2224
飯	-13.2249
컹	-13.2249
皆	-13.227
堤	-13.2273
函	-13.2273
ע	-13.2273
ს	-13.2273
傅	-13.2298
몇	-13.2309
旭	-13.2323
更	-13.2347
ŋ	-13.2347
ố	-13.2347
­	-13.2372
班	-13.2372
놨	-13.2372
汗	-13.2372
盡	-13.2394
檀	-13.2397
齡	-13.2397
े	-13.2397
ъ	-13.2397
坤	-13.2421
녘	-13.2422
酸	-13.2422
橫	-13.2422
냔	-13.2447
笠	-13.2447
썽	-13.2447
륄	-13.2472
寂	-13.2498
衍	-13.2498
又	-13.2542
諡	-13.2546
額	-13.2548
牙	-13.2574
껌	-13.2574
꿋	-13.2599
淮	-13.2599
뷸	-13.2599
打	-13.2625
펍	-13.2625
融	-13.2649
冊	-13.2649
ɪ	-13.265
ギ	-13.265
赫	-13.265
뷘	-13.265
尚	-13.2676
碧	-13.2676
佳	-13.2676
戱	-13.2701
땜	-13.2701
볜	-13.2701
遂	-13.2727
ヒ	-13.2727
ะ	-13.2753
ո	-13.2753
ɛ	-13.2753
乱	-13.2779
覆	-13.2803
ì	-13.2805
î	-13.2805
店	-13.2805
ń	-13.2805
稷	-13.2828
折	-13.2831
拓	-13.2831
ლ	-13.2857
쨩	-13.2857
禧	-13.2883
枝	-13.2883
べ	-13.2883
듈	-13.2903
쌌	-13.291
밝	-13.2931
強	-13.2934
荒	-13.2936
្	-13.2936
쌔	-13.2936
탯	-13.2936
薛	-13.2936
戊	-13.2959
ང	-13.2962
体	-13.2962
婆	-13.2989
밌	-13.2989
║	-13.2989
攝	-13.3015
拳	-13.3015
癸	-13.304
蕭	-13.3041
徵	-13.3042
換	-13.3042
睿	-13.3042
볏	-13.3042
幀	-13.3042
喆	-13.3042
築	-13.3068
넋	-13.3068
宙	-13.3068
첵	-13.3068
潮	-13.3068
競	-13.3069
澄	-13.3095
柴	-13.3095
짊	-13.3095
ễ	-13.3095
똘	-13.3095
董	-13.3122
鎌	-13.3122
輕	-13.3149
着	-13.3149
齒	-13.3174
ห	-13.3176
ַ	-13.3176
郵	-13.3176
댔	-13.3176
ས	-13.3176
暴	-13.3176
鎮	-13.3203
บ	-13.3203
Š	-13.3203
∞	-13.3203
ώ	-13.3203
係	-13.3203
束	-13.3228
朗	-13.323
閭	-13.323
갬	-13.323
党	-13.3257
갭	-13.3257
샅	-13.3257
숱	-13.3257
付	-13.3284
鹽	-13.3284
卓	-13.3284
뻣	-13.3284
或	-13.3308
召	-13.3311
賣	-13.3312
ო	-13.3312
놋	-13.3312
헷	-13.3312
鷄	-13.3337
屯	-13.334
ï	-13.3367
気	-13.3367
ị	-13.3394
菴	-13.3394
蜀	-13.3394
凡	-13.3421
就	-13.3449
券	-13.3449
ի	-13.3449
桜	-13.3449
尺	-13.3477
듦	-13.3477
묄	-13.3477
槃	-13.3477
底	-13.3505
艦	-13.3533
亡	-13.3533
寛	-13.3533
履	-13.3533
鍊	-13.3561
얗	-13.3589
戌	-13.3616
ゲ	-13.3617
괭	-13.3617
ம	-13.3617
団	-13.3617
答	-13.3641
丑	-13.3645
軌	-13.3646
牟	-13.3646
腹	-13.3646
待	-13.3673
晴	-13.3674
泥	-13.3674
ן	-13.3702
驪	-13.3731
恵	-13.3731
認	-13.3759
ְ	-13.3759
借	-13.3786
ざ	-13.3788
殊	-13.3788
態	-13.3817
祀	-13.3817
毘	-13.3817
핥	-13.3817
跋	-13.3817
Γ	-13.3846
呼	-13.3873
縛	-13.3874
災	-13.3874
漁	-13.3874
ậ	-13.3874
潘	-13.3903
ئ	-13.3903
黄	-13.3933
쁠	-13.3933
♭	-13.3933
濃	-13.3933
砂	-13.3933
ユ	-13.3962
쳇	-13.3991
祝	-13.3991
삶	-13.3995
短	-13.402
덫	-13.402
Φ	-13.402
냑	-13.405
雷	-13.405
遷	-13.4077
雍	-13.4079
萊	-13.4079
ả	-13.4079
崖	-13.4079
涅	-13.4079
Β	-13.4109
줏	-13.4109
ォ	-13.4138
爵	-13.4138
ض	-13.4138
桐	-13.4138
ி	-13.4138
丈	-13.4138
胎	-13.4165
宏	-13.4168
走	-13.4168
겜	-13.4168
̊	-13.4198
諱	-13.4227
ћ	-13.4228
ग	-13.4228
巫	-13.4228
禍	-13.4257
討	-13.4258
پ	-13.4258
輿	-13.4258
免	-13.4288
藍	-13.4288
芸	-13.4288
買	-13.4288
費	-13.4288
뚤	-13.4288
砲	-13.4288
席	-13.4318
探	-13.4318
█	-13.4349
க	-13.4349
彭	-13.4379
蒲	-13.4379
彰	-13.4408
朔	-13.4409
満	-13.441
卒	-13.4439
余	-13.4439
ִ	-13.444
応	-13.444
毒	-13.444
ś	-13.4471
ե	-13.4471
禎	-13.4471
默	-13.4502
炎	-13.4532
悲	-13.4532
ာ	-13.4532
း	-13.4532
画	-13.4532
培	-13.4532
整	-13.4533
炭	-13.4533
突	-13.4563
魂	-13.4564
옻	-13.4594
浅	-13.4594
蔣	-13.4594
욧	-13.4594
氷	-13.4624
溝	-13.4625
綾	-13.4626
豪	-13.4655
賦	-13.4657
肥	-13.4657
뎠	-13.4657
卽	-13.4686
荷	-13.4688
셤	-13.4688
ག	-13.4688
〕	-13.4751
⟫	-13.4751
哈	-13.4751
젭	-13.4751
Я	-13.4751
婚	-13.4751
强	-13.4751
愍	-13.4814
श	-13.4815
覽	-13.4846
負	-13.4846
ា	-13.4846
衙	-13.4846
悟	-13.4846
گ	-13.4846
擇	-13.4877
〔	-13.4878
跡	-13.4878
궂	-13.4878
귓	-13.4878
ர	-13.4878
县	-13.4878
呪	-13.4878
ペ	-13.491
測	-13.491
熟	-13.494
抄	-13.4943
จ	-13.4943
ா	-13.4943
筑	-13.4943
違	-13.4974
訪	-13.4974
⟪	-13.4975
昧	-13.5005
投	-13.5007
ヨ	-13.5007
駿	-13.5007
擊	-13.5007
趣	-13.5038
ज	-13.504
췬	-13.504
苑	-13.5072
Ц	-13.5072
栄	-13.5072
淡	-13.5072
乳	-13.5072
胞	-13.5072
傑	-13.5105
ု	-13.5105
償	-13.5105
폿	-13.5138
쿱	-13.5138
إ	-13.5171
亀	-13.5171
傷	-13.5171
適	-13.5201
卑	-13.5204
Э	-13.5204
ө	-13.5204
ᄐ	-13.5204
仮	-13.5204
Č	-13.5204
辺	-13.5204
遍	-13.5236
忘	-13.5236
仇	-13.5236
왠	-13.5237
幼	-13.5268
犬	-13.527
濬	-13.5303
穴	-13.5303
押	-13.5303
ह	-13.5303
뵐	-13.5303
ِ	-13.5337
ק	-13.5337
牌	-13.5337
숴	-13.5337
线	-13.5337
寿	-13.537
蟲	-13.537
稲	-13.537
щ	-13.5404
稿	-13.5404
漆	-13.5404
炯	-13.5404
側	-13.5404
范	-13.5438
Ю	-13.5438
툇	-13.5472
đ	-13.5472
몯	-13.5472
훠	-13.5472
彈	-13.5506
升	-13.5506
観	-13.5506
謹	-13.5536
憂	-13.554
複	-13.554
伴	-13.554
튤	-13.554
聚	-13.554
沃	-13.5574
ě	-13.5574
括	-13.5574
戴	-13.5574
ぼ	-13.5574
息	-13.5608
対	-13.5608
庸	-13.5608
忽	-13.5643
垂	-13.5643
罰	-13.5711
윕	-13.5712
敍	-13.5745
垣	-13.5747
ค	-13.5747
曉	-13.5747
꾹	-13.5747
뀌	-13.5776
桑	-13.5782
謀	-13.5782
虞	-13.5782
核	-13.5782
깟	-13.5782
쭝	-13.5782
勿	-13.5817
휜	-13.5817
筋	-13.5817
託	-13.5852
뭘	-13.5852
寄	-13.5852
嫡	-13.5853
믿	-13.5876
拘	-13.5888
勅	-13.5888
넝	-13.5923
눴	-13.5923
ʻ	-13.5959
눙	-13.5959
맺	-13.5983
矣	-13.5991
梧	-13.5994
앴	-13.5994
텨	-13.5994
様	-13.5995
拜	-13.6029
責	-13.603
耕	-13.603
只	-13.603
ầ	-13.603
ヴ	-13.603
彫	-13.603
ė	-13.603
綜	-13.603
幽	-13.6066
Θ	-13.6066
⋅	-13.6066
研	-13.6066
த	-13.6066
兆	-13.6066
網	-13.6101
ْ	-13.6102
賈	-13.6102
བ	-13.6102
往	-13.6138
含	-13.6138
ᄏ	-13.6138
仰	-13.6139
攻	-13.6175
泗	-13.6175
倍	-13.6175
솽	-13.6175
ח	-13.6175
参	-13.6175
隋	-13.6175
រ	-13.6175
渾	-13.6211
Ж	-13.6211
콸	-13.6211
暗	-13.6211
뽑	-13.6245
肖	-13.6248
্	-13.6248
索	-13.6248
ộ	-13.6248
卜	-13.6248
ᅩ	-13.6248
穀	-13.6248
筵	-13.6284
鷹	-13.6285
荊	-13.6285
ם	-13.6322
뺄	-13.6322
槐	-13.6322
东	-13.6359
晶	-13.6359
註	-13.6359
յ	-13.6396
閑	-13.6433
按	-13.6433
ɔ	-13.6433
မ	-13.6433
賴	-13.6468
充	-13.6471
ʃ	-13.6508
닳	-13.6508
몐	-13.6508
벰	-13.6508
頌	-13.6542
疾	-13.6544
吹	-13.6546
ξ	-13.6546
ّ	-13.6546
씰	-13.6546
采	-13.6546
億	-13.6546
灘	-13.6584
්	-13.6584
娘	-13.6584
ס	-13.6584
浙	-13.6584
ं	-13.6622
懲	-13.6622
ү	-13.666
禦	-13.666
ζ	-13.666
↔	-13.666
짬	-13.666
츤	-13.666
塩	-13.666
説	-13.666
粉	-13.6696
捕	-13.6735
播	-13.6737
冷	-13.6737
힛	-13.6737
床	-13.6774
☉	-13.6775
뉠	-13.6775
笑	-13.6814
র	-13.6814
♪	-13.6814
ो	-13.6814
耆	-13.6814
塘	-13.6814
似	-13.6847
迎	-13.6852
僞	-13.6853
ნ	-13.6853
変	-13.6853
昊	-13.6853
쏙	-13.6853
塾	-13.6853
奭	-13.6892
鉢	-13.6892
آ	-13.6892
แ	-13.6892
င	-13.6892
긱	-13.6892
ɑ	-13.6892
ᅡ	-13.6892
円	-13.6892
怪	-13.6892
悅	-13.6892
杖	-13.6931
ờ	-13.6931
駒	-13.6931
톳	-13.6931
瓦	-13.6971
斎	-13.6971
겅	-13.6971
伸	-13.6971
昆	-13.701
襲	-13.705
ศ	-13.705
穂	-13.705
豐	-13.7089
າ	-13.709
綿	-13.709
招	-13.709
灰	-13.709
蕃	-13.713
껀	-13.713
푈	-13.713
ג	-13.713
숟	-13.713
ვ	-13.713
儉	-13.7169
絲	-13.717
қ	-13.717
왑	-13.717
ї	-13.717
ゼ	-13.721
Å	-13.721
ę	-13.721
„	-13.721
ᄯ	-13.721
軸	-13.721
録	-13.721
섣	-13.7251
כ	-13.7251
ད	-13.7251
企	-13.7251
ป	-13.7291
Τ	-13.7291
銃	-13.7291
¡	-13.7291
驗	-13.7291
ُ	-13.7291
哉	-13.733
堯	-13.7332
ʼ	-13.7332
ᆺ	-13.7332
妄	-13.7373
翔	-13.7373
獸	-13.7373
숑	-13.7373
쳅	-13.7373
헉	-13.7373
Ν	-13.7414
幻	-13.7414
弥	-13.7414
洗	-13.7414
迷	-13.7414
ぬ	-13.7415
敢	-13.7453
雀	-13.7456
顧	-13.7456
电	-13.7456
幢	-13.7456
樣	-13.7456
뷴	-13.7456
햅	-13.7456
低	-13.7495
繫	-13.7497
彬	-13.7497
빤	-13.7497
פ	-13.7497
馮	-13.7497
險	-13.7497
裏	-13.7497
頃	-13.7497
幾	-13.7533
沒	-13.7536
予	-13.7538
柔	-13.7539
壓	-13.7539
貸	-13.7539
確	-13.7539
壺	-13.7539
웩	-13.7539
辦	-13.7581
菌	-13.7581
陟	-13.7623
껄	-13.7623
倒	-13.7665
ไ	-13.7707
課	-13.7707
乎	-13.7746
衝	-13.775
曜	-13.775
Ü	-13.775
ေ	-13.775
遞	-13.7792
窟	-13.7793
暦	-13.7793
蒼	-13.7835
快	-13.7835
ւ	-13.7835
冥	-13.7836
珪	-13.7836
닻	-13.7879
듄	-13.7879
割	-13.7922
夕	-13.7922
拉	-13.7922
辯	-13.7922
팹	-13.7922
混	-13.7922
敷	-13.7922
懸	-13.7965
伺	-13.7965
鄧	-13.7965
铁	-13.7965
Ἀ	-13.7965
庾	-13.7965
舒	-13.7965
詔	-13.7965
쉔	-13.7965
Ω	-13.7965
宴	-13.8009
甁	-13.8009
돤	-13.8009
づ	-13.8009
蜜	-13.8009
揮	-13.8053
ब	-13.8053
乞	-13.8053
屠	-13.8053
늉	-13.8053
མ	-13.8053
当	-13.8053
İ	-13.8097
∎	-13.8097
排	-13.8097
貝	-13.8097
욥	-13.8097
竜	-13.8097
慮	-13.8097
糖	-13.8141
薰	-13.8141
뗏	-13.8141
頓	-13.8141
扈	-13.8185
諭	-13.8186
셧	-13.8186
쫄	-13.8186
│	-13.8186
륌	-13.8186
劑	-13.823
ল	-13.823
阜	-13.823
ᠠ	-13.823
秩	-13.8273
塵	-13.8275
蛇	-13.8275
偏	-13.8275
発	-13.8275
ظ	-13.8275
뗀	-13.8275
팠	-13.8275
浚	-13.832
鏞	-13.8365
遣	-13.8365
柏	-13.8365
陜	-13.8365
眉	-13.8366
燒	-13.8411
租	-13.8411
減	-13.8411
喬	-13.8411
奮	-13.8456
緖	-13.8456
န	-13.8457
慰	-13.8502
看	-13.8502
従	-13.8502
鎔	-13.8502
涼	-13.8502
ř	-13.8502
練	-13.8546
詳	-13.8548
ိ	-13.8548
筒	-13.8548
擔	-13.8548
긔	-13.8548
끽	-13.8548
뺑	-13.8548
쳉	-13.8548
弁	-13.8549
旦	-13.8549
扇	-13.8549
戎	-13.8595
霞	-13.8595
Ι	-13.8595
畠	-13.8595
顕	-13.8595
ি	-13.8595
ு	-13.8595
ᆮ	-13.8595
≤	-13.8595
箭	-13.8595
꿍	-13.8595
寇	-13.8639
綏	-13.8641
ন	-13.8641
掛	-13.8641
湘	-13.8641
ء	-13.8641
믐	-13.8641
ི	-13.8641
燦	-13.8688
ồ	-13.8688
셩	-13.8688
ུ	-13.8688
温	-13.8688
斬	-13.8688
礙	-13.8688
猶	-13.8731
戚	-13.8734
駕	-13.8735
ܐ	-13.8735
圈	-13.8735
渠	-13.8735
謨	-13.8735
与	-13.8782
떳	-13.8782
맣	-13.8782
璋	-13.8782
ψ	-13.8782
倂	-13.8782
盜	-13.883
广	-13.883
緯	-13.883
თ	-13.883
絵	-13.8877
챘	-13.8877
ட	-13.8877
潛	-13.8877
嶽	-13.8925
架	-13.8925
ப	-13.8925
냘	-13.8925
켠	-13.8925
ـ	-13.8925
ธ	-13.8973
徹	-13.8973
杏	-13.8973
뻬	-13.8973
쥴	-13.8973
札	-13.8973
壞	-13.8973
爆	-13.9021
蔭	-13.9021
ན	-13.9021
静	-13.9021
ṭ	-13.9021
묶	-13.9053
危	-13.907
髮	-13.907
飮	-13.907
迪	-13.9118
忌	-13.9119
訟	-13.9119
Χ	-13.9119
뎁	-13.9119
က	-13.9168
Ó	-13.9168
场	-13.9168
뻑	-13.9168
왐	-13.9168
쩨	-13.9168
쬐	-13.9168
ɡ	-13.9217
ą	-13.9217
橘	-13.9217
耽	-13.9217
旋	-13.9264
纏	-13.9265
猛	-13.9265
游	-13.9266
霊	-13.9266
賤	-13.9266
โ	-13.9266
ṣ	-13.9266
琉	-13.9266
郁	-13.9266
鑛	-13.9266
꼿	-13.9266
滝	-13.9267
슷	-13.9308
偉	-13.9316
避	-13.9316
ֹ	-13.9316
묽	-13.9316
쪄	-13.9316
隣	-13.9316
互	-13.9366
図	-13.9366
篆	-13.9366
ث	-13.9366
膜	-13.9366
菅	-13.9366
ő	-13.9366
姚	-13.9366
갉	-13.9366
쭐	-13.9416
ذ	-13.9416
狂	-13.9416
貿	-13.9417
涉	-13.9466
沿	-13.9467
ᄑ	-13.9467
껫	-13.9467
ා	-13.9467
瞻	-13.9467
繁	-13.9515
Ο	-13.9518
賃	-13.9518
车	-13.9518
訥	-13.9518
⇒	-13.9518
姑	-13.9567
誤	-13.9568
媛	-13.9569
ි	-13.9569
괵	-13.9569
ʊ	-13.9569
ḥ	-13.9569
療	-13.9569
勸	-13.9569
韋	-13.9569
ལ	-13.9569
მ	-13.962
亜	-13.962
響	-13.962
瑜	-13.9672
ර	-13.9672
児	-13.9672
羲	-13.9672
샥	-13.9672
톄	-13.9672
ম	-13.9672
爐	-13.9672
抱	-13.9672
ぞ	-13.9723
吐	-13.9723
庁	-13.9723
旣	-13.9759
飾	-13.977
უ	-13.9776
個	-13.9776
禄	-13.9776
妖	-13.9776
否	-13.9776
窮	-13.9776
闕	-13.9824
到	-13.9827
ɣ	-13.9828
♡	-13.9828
챤	-13.9828
続	-13.9828
遲	-13.988
狼	-13.988
怨	-13.988
õ	-13.988
ེ	-13.988
퓸	-13.988
ט	-13.9933
悌	-13.9933
磐	-13.9933
ʔ	-13.9987
च	-13.9987
쳄	-13.9987
쿈	-13.9987
厭	-13.9987
鴨	-13.9987
薄	-13.9987
榜	-14.0038
ក	-14.004
廻	-14.004
镇	-14.004
晦	-14.004
卵	-14.004
悼	-14.004
斜	-14.004
軽	-14.004
篤	-14.0093
糧	-14.0093
歐	-14.0094
漫	-14.0094
ல	-14.0094
虹	-14.0094
恐	-14.0094
週	-14.0148
죤	-14.0148
猫	-14.0148
荘	-14.0148
諺	-14.0148
睡	-14.0202
獅	-14.0202
覇	-14.0202
猿	-14.0202
逢	-14.0256
悔	-14.0257
ব	-14.0257
휨	-14.0257
ヘ	-14.0257
朋	-14.0311
濱	-14.0312
紗	-14.0312
펏	-14.0312
灌	-14.0312
刹	-14.0312
誓	-14.0312
脚	-14.0312
怖	-14.0312
返	-14.0367
翠	-14.0367
蘆	-14.0367
횔	-14.0367
ぽ	-14.0367
塞	-14.0367
窯	-14.0423
꽈	-14.0423
廊	-14.0423
畫	-14.0423
悪	-14.0478
տ	-14.0478
溟	-14.0478
궬	-14.0478
တ	-14.0479
昔	-14.0479
屈	-14.0479
纂	-14.0479
預	-14.0522
棄	-14.0531
據	-14.0534
勉	-14.0535
鑄	-14.0535
ז	-14.0535
ម	-14.0535
읜	-14.0535
켁	-14.0535
튈	-14.0535
œ	-14.0535
譚	-14.0535
讚	-14.0535
増	-14.0535
聽	-14.059
愧	-14.0591
帳	-14.0591
循	-14.0591
쫑	-14.0591
狗	-14.0591
怒	-14.0647
煙	-14.0648
幣	-14.0648
넹	-14.0648
퉈	-14.0648
値	-14.0648
誦	-14.0689
斤	-14.0705
帽	-14.0705
갛	-14.0705
零	-14.0705
狄	-14.0705
鎖	-14.0759
凶	-14.0762
冀	-14.0763
ြ	-14.0763
剌	-14.0763
覚	-14.0763
雕	-14.0763
鳩	-14.0763
澈	-14.0763
屛	-14.0816
ἀ	-14.082
諾	-14.082
씁	-14.082
荀	-14.082
婢	-14.082
婁	-14.0879
अ	-14.0879
栢	-14.0879
甄	-14.0879
邸	-14.0879
땔	-14.0879
믄	-14.0879
ស	-14.0937
絃	-14.0937
ে	-14.0937
ச	-14.0937
劃	-14.0937
怡	-14.0937
ბ	-14.0937
樑	-14.0937
雖	-14.0988
稽	-14.0996
轄	-14.0996
®	-14.0996
礼	-14.0996
ʁ	-14.0996
綬	-14.0996
渓	-14.0996
揆	-14.0996
畢	-14.0996
遮	-14.0996
柄	-14.0996
皐	-14.1055
ә	-14.1055
誘	-14.1055
斥	-14.1055
빻	-14.1055
瓊	-14.1055
巻	-14.1114
膺	-14.1114
ပ	-14.1115
뭍	-14.1115
쾅	-14.1115
隅	-14.1115
웽	-14.1115
滸	-14.1115
祈	-14.1174
哥	-14.1174
嶋	-14.1174
━	-14.1174
圍	-14.1175
岑	-14.1231
痛	-14.1234
肇	-14.1234
ट	-14.1235
堡	-14.1235
樊	-14.1235
諍	-14.1235
வ	-14.1235
但	-14.1235
馨	-14.1235
挺	-14.1235
聰	-14.1295
ު	-14.1295
Ç	-14.1295
裂	-14.1295
뗄	-14.1295
慚	-14.1354
棋	-14.1356
腦	-14.1356
詠	-14.1356
湛	-14.1356
阳	-14.1356
밉	-14.1356
ක	-14.1356
杓	-14.1356
旺	-14.1356
遵	-14.1417
硬	-14.1418
چ	-14.1418
弐	-14.1418
윰	-14.1418
འ	-14.1418
畑	-14.1418
甚	-14.1477
ត	-14.1479
楠	-14.1479
晃	-14.1479
苗	-14.1479
뜀	-14.1479
串	-14.1479
窩	-14.1479
閤	-14.1479
歡	-14.1541
ヲ	-14.1541
ู	-14.1541
済	-14.1541
旧	-14.1541
짰	-14.1541
叢	-14.1541
峻	-14.1541
泊	-14.1603
争	-14.1604
华	-14.1604
ֶ	-14.1604
潟	-14.1604
Ş	-14.1604
জ	-14.1604
閉	-14.1604
켕	-14.1604
訣	-14.1604
剣	-14.1604
拾	-14.1604
珉	-14.1604
鵬	-14.1604
妹	-14.1663
患	-14.1664
寵	-14.1664
圃	-14.1667
鐸	-14.1667
ध	-14.1667
擬	-14.1667
肩	-14.1667
솁	-14.1667
욀	-14.1667
ῖ	-14.1667
烽	-14.1667
析	-14.1667
縱	-14.1729
琳	-14.173
卦	-14.173
盆	-14.173
ᄭ	-14.173
伎	-14.173
晟	-14.173
칡	-14.173
霧	-14.173
拔	-14.173
恨	-14.1792
檜	-14.1793
畏	-14.1793
獲	-14.1794
ण	-14.1794
汀	-14.1794
깽	-14.1794
뢸	-14.1794
튄	-14.1794
渤	-14.1794
燁	-14.1794
脂	-14.1794
舎	-14.1794
璿	-14.1794
每	-14.1857
禰	-14.1858
凝	-14.1858
녓	-14.1858
뒬	-14.1858
찡	-14.1858
§	-14.1858
න	-14.1858
巾	-14.1858
即	-14.1912
竟	-14.1919
漸	-14.1922
紳	-14.1922
ນ	-14.1922
閻	-14.1922
⟩	-14.1922
Ø	-14.1922
ʒ	-14.1922
섐	-14.1922
偶	-14.1922
捷	-14.1986
ぜ	-14.1987
僖	-14.1987
炫	-14.1987
ʿ	-14.1987
ष	-14.1987
曽	-14.1987
빳	-14.1987
裴	-14.2052
দ	-14.2053
ĩ	-14.2053
♯	-14.2053
퀜	-14.2053
쯩	-14.2053
迫	-14.2053
撃	-14.2118
藻	-14.2118
滋	-14.2118
ἐ	-14.2119
⟨	-14.2119
땋	-14.2119
弗	-14.2185
竿	-14.2185
鋼	-14.2185
杭	-14.2185
ề	-14.2251
빕	-14.2251
잽	-14.2251
ǫ	-14.2251
भ	-14.2251
湾	-14.2251
兮	-14.2251
늬	-14.228
弱	-14.2317
採	-14.2318
祉	-14.2318
禅	-14.2319
ֵ	-14.2319
ड	-14.2319
歩	-14.2319
瑛	-14.2319
ە	-14.2319
叉	-14.2319
尤	-14.2319
衰	-14.2319
脩	-14.2319
祇	-14.2382
‍	-14.2384
並	-14.2384
欣	-14.2386
陝	-14.2386
կ	-14.2386
ܝ	-14.2386
渭	-14.2386
点	-14.2386
됴	-14.2386
렷	-14.2386
Ž	-14.2386
妓	-14.2386
廬	-14.2386
쎈	-14.2386
퍄	-14.2386
殘	-14.2386
劫	-14.2387
戀	-14.2454
奧	-14.2454
ș	-14.2454
ू	-14.2454
針	-14.2454
კ	-14.2454
ன	-14.2454
腸	-14.2454
尸	-14.2454
ھ	-14.2454
継	-14.2454
焉	-14.2503
溶	-14.2522
邵	-14.2523
ս	-14.2523
І	-14.2523
ณ	-14.2523
侵	-14.2523
抵	-14.2586
ภ	-14.2592
寸	-14.2592
棟	-14.2592
ু	-14.2592
↑	-14.2592
槍	-14.2592
狩	-14.2592
敗	-14.266
祗	-14.2661
状	-14.2661
挙	-14.2661
杞	-14.2661
殉	-14.2661
猪	-14.2661
ہ	-14.2661
媒	-14.2661
禿	-14.2661
翟	-14.2661
趾	-14.2661
褒	-14.2727
滑	-14.2728
椿	-14.2731
酵	-14.2731
龐	-14.2731
쟌	-14.2731
틔	-14.2731
ய	-14.2731
盈	-14.2731
ྱ	-14.2731
瀛	-14.2801
勘	-14.2801
צ	-14.2801
ắ	-14.2801
섕	-14.2801
퓔	-14.2801
票	-14.2801
舉	-14.2838
畜	-14.287
需	-14.2871
且	-14.2871
液	-14.2872
脇	-14.2872
ข	-14.2872
ɾ	-14.2872
帯	-14.2872
Ś	-14.2872
◎	-14.2872
틋	-14.2872
팃	-14.2872
熹	-14.2872
礪	-14.294
湜	-14.2944
摂	-14.2944
≈	-14.2944
箱	-14.2944
萱	-14.2944
竺	-14.2944
衿	-14.2944
醴	-14.2944
掉	-14.2982
ަ	-14.3016
你	-14.3016
敞	-14.3016
棺	-14.3016
燃	-14.3016
ྲ	-14.3016
û	-14.3016
ぱ	-14.3016
粹	-14.3016
좨	-14.3016
詮	-14.3016
웻	-14.3016
専	-14.3016
嘗	-14.3078
恪	-14.3088
胸	-14.3088
仏	-14.3088
咲	-14.3088
杯	-14.3088
隸	-14.3088
曼	-14.3088
珥	-14.3088
遜	-14.3088
띵	-14.3088
ᅴ	-14.3088
篠	-14.3088
鄒	-14.3088
뼛	-14.3088
찧	-14.3088
ந	-14.3088
勃	-14.3088
吸	-14.3088
臥	-14.3088
窓	-14.3088
売	-14.3088
謁	-14.3088
績	-14.3089
স	-14.3161
냠	-14.3161
뵙	-14.3161
휫	-14.3161
凰	-14.3161
妾	-14.3161
輯	-14.3161
数	-14.3161
污	-14.3233
麤	-14.3234
曇	-14.3235
斐	-14.3235
皓	-14.3235
龙	-14.3235
塊	-14.3235
垢	-14.3308
ន	-14.3309
渋	-14.3309
籠	-14.3309
մ	-14.3309
ứ	-14.3309
长	-14.3309
溥	-14.3309
縮	-14.3309
断	-14.3309
凌	-14.3309
ວ	-14.3383
ţ	-14.3383
윷	-14.3383
ᅮ	-14.3383
ᆨ	-14.3383
ṇ	-14.3383
뵘	-14.3383
솀	-14.3383
踊	-14.3383
ў	-14.3383
賠	-14.3383
峙	-14.3383
醉	-14.3459
冶	-14.3459
动	-14.3459
弾	-14.3459
閩	-14.3459
ɨ	-14.3459
∈	-14.3459
≥	-14.3459
坦	-14.3459
脣	-14.3459
菱	-14.3459
녠	-14.3459
쾡	-14.3459
릎	-14.3527
澗	-14.3534
緒	-14.3534
视	-14.3534
ż	-14.3534
͡	-14.3534
憩	-14.3534
멎	-14.3534
双	-14.3534
械	-14.3534
憶	-14.3535
閱	-14.361
峽	-14.3611
羌	-14.3611
ǰ	-14.3611
♂	-14.3611
짭	-14.3611
両	-14.3687
慎	-14.3687
♥	-14.3688
Þ	-14.3688
ụ	-14.3688
螺	-14.3688
辻	-14.3688
̃	-14.3688
蓬	-14.3688
茅	-14.3764
搜	-14.3765
牒	-14.3765
뻤	-14.3765
焼	-14.3765
쉥	-14.3765
誕	-14.3765
厳	-14.3843
独	-14.3843
燧	-14.3843
鈞	-14.3843
잴	-14.3843
Ä	-14.3843
ხ	-14.3843
ῶ	-14.3843
姉	-14.3843
詹	-14.3843
惛	-14.3912
驅	-14.3919
棒	-14.3922
縄	-14.3922
훑	-14.3922
ရ	-14.3922
疫	-14.3922
鞠	-14.3922
什	-14.3922
描	-14.3922
替	-14.3922
沛	-14.4001
ũ	-14.4001
ܘ	-14.4001
დ	-14.4001
謠	-14.4001
崗	-14.4001
踏	-14.4001
添	-14.4081
Ա	-14.4081
ත	-14.4081
楞	-14.4081
璃	-14.4081
嵩	-14.4081
巢	-14.4081
検	-14.4081
黔	-14.4081
蹴	-14.4081
軛	-14.4081
峨	-14.4081
誼	-14.4156
辟	-14.4162
ษ	-14.4162
刷	-14.4162
貧	-14.4162
錯	-14.4162
崩	-14.4162
გ	-14.4162
繡	-14.4162
鞍	-14.4162
ׁ	-14.4162
楓	-14.4162
澳	-14.4162
뺐	-14.4162
滉	-14.4162
瑩	-14.4162
磯	-14.4162
雑	-14.4162
況	-14.4162
鷲	-14.4163
耀	-14.4243
枕	-14.4243
ង	-14.4243
汚	-14.4243
璽	-14.4243
ῦ	-14.4243
斉	-14.4243
尻	-14.4243
楷	-14.4243
削	-14.4243
僚	-14.4321
幷	-14.4323
‚	-14.4325
禾	-14.4325
깰	-14.4325
奪	-14.4325
棲	-14.4325
塑	-14.4325
批	-14.4325
訶	-14.4325
某	-14.4406
股	-14.4408
隷	-14.4408
浄	-14.4408
暉	-14.4408
þ	-14.4408
ය	-14.4408
≠	-14.4408
ぷ	-14.4408
켑	-14.4408
÷	-14.4408
粟	-14.4408
椒	-14.4408
疆	-14.4491
装	-14.4491
竇	-14.4491
旻	-14.4491
ὶ	-14.4491
傍	-14.4491
腐	-14.4491
꽌	-14.4491
틍	-14.4491
门	-14.4491
ම	-14.4491
ᠨ	-14.4491
芽	-14.4491
悉	-14.4571
ื	-14.4575
浴	-14.4575
暎	-14.4575
凱	-14.4575
寮	-14.4575
淺	-14.4575
牡	-14.4575
훨	-14.4919
깥	-14.5269
띄	-14.596
끊	-14.9089
쐈	-17.0626
ྫ	-17.0627
넸	-17.0628
탰	-17.0629
ํ	-17.063
텼	-17.0631
뀜	-17.0632
	-17.0633
넜	-17.0634
◾	-17.0635
탉	-17.0636
빴	-17.0637
깼	-17.0638
엷	-17.0639
옅	-17.064
엌	-17.0641
띈	-17.0642
샀	-17.0643
뤘	-17.0644
땄	-17.0645
얹	-17.0646
잦	-17.0647
짙	-17.0648
흩	-17.0649
덟	-17.065
얇	-17.0651
컫	-17.0652
짧	-17.0653
겪	-17.0654
랐	-17.0654
